<pad>	0
<s>	0
</s>	0
<unk>	0
▁di	-3.3416
▁"	-3.36605
▁e	-3.47703
,	-3.65304
▁la	-3.83104
'	-3.86484
?",	-4.03707
▁un	-4.12642
▁è	-4.17852
.	-4.18229
▁il	-4.28809
▁per	-4.32797
▁che	-4.46624
.",	-4.47832
▁le	-4.51051
▁a	-4.64029
▁in	-4.80613
▁si	-4.86634
▁una	-4.89216
▁del	-4.89595
▁l	-4.90583
▁della	-5.04924
▁i	-5.11584
▁con	-5.26558
La	-5.37673
Come	-5.46694
",	-5.47572
▁sono	-5.50676
]	-5.55313
▁["	-5.55593
▁dei	-5.57394
▁ha	-5.58115
▁delle	-5.58804
▁più	-5.61052
▁non	-5.66876
▁può	-5.70248
▁essere	-5.7293
Cosa	-5.73511
▁dell	-5.7575
▁sua	-5.76071
▁La	-5.78715
▁da	-5.80354
▁	-5.80779
Perché	-5.84799
▁come	-5.88649
Il	-5.88806
▁gli	-5.92224
▁modo	-5.95216
e	-6.01507
▁era	-6.09841
▁sulla	-6.14618
](	-6.15444
▁alla	-6.18597
▁[	-6.18875
▁importante	-6.21433
."	-6.21524
▁loro	-6.21968
▁al	-6.23858
▁nel	-6.25111
i	-6.2521
▁nella	-6.28185
▁cosa	-6.28728
▁vita	-6.31903
▁ma	-6.35011
▁possono	-6.35361
Qual	-6.4265
▁Il	-6.43545
o	-6.44149
▁d	-6.44598
Che	-6.49109
L	-6.5251
▁sistema	-6.54034
▁se	-6.57216
▁città	-6.57472
In	-6.58273
Quali	-6.62253
▁alle	-6.63469
▁stato	-6.6466
a	-6.65681
▁tra	-6.68794
▁suo	-6.69371
▁fondamentale	-6.69436
▁gestione	-6.70558
?"	-6.71493
▁hanno	-6.72651
▁o	-6.72658
▁all	-6.72745
?	-6.74585
▁tempo	-6.76307
▁dati	-6.77688
▁lo	-6.7803
▁avere	-6.78955
▁storia	-6.78975
▁ci	-6.78992
Quale	-6.79311
▁web	-6.79698
▁anche	-6.80925
▁nostra	-6.82551
▁ogni	-6.84086
È	-6.85618
)?",	-6.85663
▁creare	-6.87735
è	-6.88487
I	-6.88711
▁ai	-6.9079
esperienza	-6.92114
Per	-6.93803
▁migliorare	-6.97832
▁raggiungere	-6.98716
▁quando	-6.98913
▁senza	-6.9927
Le	-7.00023
▁persone	-7.00134
▁posso	-7.02791
autore	-7.0291
)	-7.08229
▁stata	-7.09513
▁qualità	-7.09611
re	-7.09638
Chi	-7.10579
▁sicurezza	-7.10702
▁fare	-7.10779
▁questo	-7.11677
▁informazioni	-7.12198
"	-7.12239
▁mi	-7.12491
▁L	-7.12499
▁richiede	-7.12584
▁aveva	-7.13007
▁esigenze	-7.13605
▁lavoro	-7.14393
▁necessario	-7.14446
▁sue	-7.15055
▁salute	-7.15077
arte	-7.16868
▁mondo	-7.17104
▁dove	-7.19606
▁serve	-7.19879
▁dall	-7.20597
▁dalle	-7.20898
▁garantire	-7.215
▁successo	-7.21661
▁progetto	-7.21915
▁grande	-7.23656
▁nuove	-7.23751
▁problemi	-7.24575
▁su	-7.25508
▁sul	-7.26319
▁viaggio	-7.26335
▁nuovo	-7.26497
▁sempre	-7.26683
▁trovare	-7.26942
▁sviluppo	-7.26951
▁cultura	-7.27419
▁molto	-7.27721
▁capacità	-7.27917
▁perché	-7.2915
▁cui	-7.31497
▁cucina	-7.32378
▁offre	-7.32533
▁luogo	-7.32985
A	-7.33073
▁degl	-7.34006
▁clienti	-7.34286
▁prendere	-7.3446
▁durant	-7.34939
▁sito	-7.37036
▁tutti	-7.37769
▁poiché	-7.37949
▁essenziale	-7.38742
▁suoi	-7.3941
▁risorse	-7.40348
▁dal	-7.41492
▁altri	-7.41684
▁mia	-7.41711
▁Per	-7.42698
▁natura	-7.43013
▁I	-7.43808
▁grazie	-7.43923
▁scoprire	-7.44496
▁ottenere	-7.46183
▁dopo	-7.46432
Cos	-7.47202
Un	-7.4877
▁possibile	-7.5016
▁deve	-7.51113
▁utilizzare	-7.51337
▁evitare	-7.51981
▁processo	-7.53084
▁aver	-7.5309
▁nell	-7.53686
▁consente	-7.53779
▁mio	-7.54249
▁solo	-7.55257
▁nuova	-7.55987
▁attraverso	-7.56259
▁Inoltre	-7.57524
▁diverse	-7.57901
azienda	-7.58047
▁ad	-7.58439
▁scelta	-7.58574
▁efficace	-7.58814
▁difficoltà	-7.59743
▁prima	-7.59805
▁affrontare	-7.60244
▁causa	-7.60496
no	-7.61026
▁persona	-7.62003
▁così	-7.62246
▁propria	-7.62557
_	-7.6338
▁obiettivi	-7.64055
▁gestire	-7.6473
▁nostro	-7.65514
▁ricerca	-7.6567
▁ridurre	-7.65753
▁In	-7.66197
▁comprendere	-7.66883
▁conseguenze	-7.67058
▁situazione	-7.67933
atmosfera	-7.68633
▁Emma	-7.68889
▁quindi	-7.68958
▁giorno	-7.69221
▁comunità	-7.69305
▁file	-7.70002
▁utenti	-7.70201
▁rappresenta	-7.70386
▁ho	-7.70577
▁problema	-7.71047
▁attività	-7.71061
▁Le	-7.71341
▁superare	-7.7144
▁mentre	-7.71768
▁potrebbe	-7.729
▁prodotti	-7.7292
▁team	-7.73581
▁casa	-7.75032
M	-7.75799
▁software	-7.7587
▁fa	-7.7589
▁poter	-7.76192
▁conto	-7.77146
▁mantenere	-7.77366
▁possibilità	-7.77875
▁funzionalità	-7.78002
▁proprio	-7.78601
ò	-7.78958
▁efficiente	-7.81263
▁online	-7.8194
▁servizi	-7.82203
▁chiave	-7.82373
▁decisioni	-7.82423
ISC	-7.82801
▁esempio	-7.82806
▁bellezza	-7.83108
▁futuro	-7.83195
▁erano	-7.8335
▁proprie	-7.83767
▁momento	-7.84253
▁crescita	-7.84803
C	-7.8525
ambiente	-7.85345
▁conoscenza	-7.85373
▁fatto	-7.85451
▁sia	-7.85584
▁Tuttavia	-7.8645
▁società	-7.86537
▁alta	-7.87138
Dove	-7.87789
▁sfide	-7.88903
▁base	-7.90352
▁soluzioni	-7.90759
▁unica	-7.90775
▁personale	-7.91155
▁Tom	-7.91664
▁lungo	-7.92601
▁nostre	-7.92636
▁cura	-7.92665
gli	-7.93367
▁parte	-7.93573
▁deciso	-7.9373
▁tutto	-7.94149
▁difficile	-7.94531
▁aiutare	-7.94589
▁tecnologia	-7.94837
ro	-7.94893
▁molti	-7.9518
▁Maria	-7.95658
▁passaporto	-7.95683
▁grado	-7.95809
▁comprensione	-7.96265
▁ruolo	-7.96734
▁applicazioni	-7.97242
▁risultati	-7.97443
-	-7.97946
▁risultato	-7.98068
▁meglio	-7.98247
▁tipo	-7.98413
importanza	-7.98731
▁sole	-7.99389
▁ancora	-7.99832
▁famiglia	-8.00082
▁prestazioni	-8.00089
▁opere	-8.00341
utilizzo	-8.00385
▁maggiore	-8.00691
applicazione	-8.01598
▁comunicazione	-8.02039
▁succede	-8.02879
▁utente	-8.02953
▁esperienze	-8.03146
▁rende	-8.03502
▁risolvere	-8.03738
▁giornata	-8.0406
▁tecnologie	-8.04322
obiettivo	-8.04663
▁spesso	-8.05335
▁paese	-8.05612
▁sta	-8.05909
▁attenzione	-8.06005
▁fine	-8.06356
▁servizio	-8.06508
▁errori	-8.06642
urante	-8.06646
▁uno	-8.06655
▁mare	-8.07003
▁trova	-8.07156
▁sull	-8.0734
▁strumenti	-8.07561
▁mercato	-8.08373
▁stava	-8.08461
▁opzioni	-8.08989
▁piatti	-8.0903
▁lavorare	-8.09057
▁realtà	-8.09151
▁propri	-8.09236
▁italiana	-8.09616
▁fisica	-8.09627
▁stati	-8.09721
▁server	-8.10678
▁considerare	-8.1069
▁cruciale	-8.11285
▁aumentare	-8.11769
▁passato	-8.1219
▁colazione	-8.12285
▁ciò	-8.12508
▁sulle	-8.12552
▁cuore	-8.13582
▁tutte	-8.1387
Gli	-8.13949
ITY	-8.14447
▁ambiente	-8.1579
▁tua	-8.16009
▁corpo	-8.16028
▁culturale	-8.16333
▁locale	-8.16429
▁alcuni	-8.16588
▁valore	-8.17257
▁gamma	-8.17663
▁ti	-8.17866
▁struttura	-8.18
▁sarà	-8.18205
▁percorso	-8.18556
▁luce	-8.18575
▁impatto	-8.18896
▁scegliere	-8.19047
▁condizioni	-8.19266
▁creazione	-8.19384
▁insieme	-8.19599
▁aziende	-8.20286
▁Quando	-8.20296
▁facile	-8.20412
▁pelle	-8.20927
▁esperienza	-8.20936
▁volta	-8.21371
▁nostri	-8.21387
Una	-8.22562
▁cos	-8.22733
▁prevenire	-8.2279
▁identità	-8.22823
▁significa	-8.23508
▁sicuro	-8.23656
▁offrire	-8.23761
▁codice	-8.23777
▁sostenibile	-8.23822
▁quotidiana	-8.2386
▁vista	-8.24058
▁amici	-8.2426
▁mente	-8.2433
▁soluzione	-8.24352
▁Dopo	-8.24759
▁mai	-8.25188
▁complesso	-8.26286
▁importanti	-8.26335
▁sé	-8.26711
▁economica	-8.26726
▁programmazione	-8.26952
▁forma	-8.2702
▁emozioni	-8.27114
▁imparare	-8.2723
▁decise	-8.27708
▁disponibili	-8.28055
▁anni	-8.28058
S	-8.28157
▁fu	-8.28386
▁strada	-8.29205
▁creando	-8.2924
▁devono	-8.30059
▁Cosa	-8.30136
▁buona	-8.30299
▁prodotto	-8.30502
▁quantità	-8.30525
▁vera	-8.30678
▁visto	-8.30895
▁pace	-8.31052
▁grandi	-8.31159
▁punto	-8.31372
ndo	-8.31483
▁naturale	-8.31826
▁vivere	-8.31885
analisi	-8.31934
▁approfondita	-8.32366
▁vengono	-8.32496
▁andare	-8.32881
▁piano	-8.33021
▁pubblico	-8.33062
▁piattaforma	-8.33346
▁fiducia	-8.33817
▁musica	-8.33843
▁Come	-8.33963
▁due	-8.33975
▁vuole	-8.34052
▁portare	-8.34225
▁configurazione	-8.34675
▁fattori	-8.3472
▁de	-8.34807
▁principale	-8.35004
▁abilità	-8.35029
▁permette	-8.35213
▁testo	-8.35334
▁posto	-8.35723
egli	-8.3622
▁sui	-8.36241
▁caratteristiche	-8.36291
si	-8.36462
aria	-8.36464
▁dieta	-8.36478
▁aiuta	-8.36512
▁villaggio	-8.3663
▁Un	-8.36724
:	-8.36764
▁tuo	-8.37372
▁produzione	-8.37414
▁the	-8.37418
▁operativo	-8.37682
▁pianificazione	-8.37816
▁sentire	-8.38052
▁specifiche	-8.38417
▁scopo	-8.38633
acqua	-8.39415
▁stessi	-8.395
▁siano	-8.39968
▁nei	-8.40262
▁locali	-8.40384
▁viene	-8.40841
▁state	-8.41278
▁richieste	-8.41298
▁sviluppare	-8.4138
▁corso	-8.41557
▁stabilità	-8.41624
▁fornire	-8.4202
▁Quest	-8.42155
▁Perché	-8.42317
▁valutare	-8.42609
▁guida	-8.42754
▁fosse	-8.42775
impatto	-8.43235
▁storie	-8.43295
▁conoscenze	-8.43448
▁c	-8.43582
▁migliore	-8.43826
▁caso	-8.44281
▁documenti	-8.44297
▁cose	-8.44378
▁proteggere	-8.44721
▁capire	-8.4546
▁speciale	-8.45933
▁rischio	-8.46412
▁possiamo	-8.46482
▁verso	-8.46491
▁contenuti	-8.46524
▁esplorare	-8.46636
Quando	-8.46775
▁forte	-8.46814
▁dai	-8.46988
▁diversi	-8.47321
▁naturali	-8.47396
▁piante	-8.47554
▁azioni	-8.47597
▁necessità	-8.47602
▁sistemi	-8.47633
▁chi	-8.47835
▁strategie	-8.47862
▁permesso	-8.47945
▁malattie	-8.48254
▁linguaggio	-8.48294
▁avuto	-8.48368
ono	-8.48574
▁accedere	-8.48668
▁benefici	-8.48795
▁quella	-8.49047
▁facilmente	-8.49282
▁troppo	-8.49289
▁forza	-8.49403
▁denaro	-8.49598
▁esperti	-8.49814
▁passione	-8.49842
▁richiesta	-8.49945
Quant	-8.5007
▁bisogno	-8.50256
▁rete	-8.50364
▁decisione	-8.50561
▁scelte	-8.5074
▁seguire	-8.51253
▁formazione	-8.51794
▁giovane	-8.51902
▁pratica	-8.52011
opera	-8.52031
▁qualcosa	-8.5214
▁D	-8.52342
▁controllo	-8.5249
▁agli	-8.5289
▁energia	-8.5322
▁strade	-8.53221
▁stile	-8.53319
DOCUMENT	-8.53666
▁termine	-8.53883
▁tradizioni	-8.54095
▁unico	-8.54254
▁rispetto	-8.54294
▁essenziali	-8.54523
▁perdere	-8.54782
▁parole	-8.54795
▁porta	-8.54992
▁questa	-8.55016
▁attentamente	-8.55035
▁aiuto	-8.55089
▁idee	-8.55279
la	-8.55551
▁strategia	-8.5577
▁Lena	-8.55931
▁tecniche	-8.56528
▁quanto	-8.56555
installazione	-8.56649
attività	-8.5665
▁presenza	-8.56716
mente	-8.56894
▁dover	-8.56928
▁Era	-8.57101
▁valutazione	-8.57203
▁opportunità	-8.57212
▁stress	-8.57536
▁progetti	-8.5756
▁regione	-8.57725
▁velocità	-8.57948
▁ingredienti	-8.5822
▁siti	-8.5855
▁tempi	-8.58675
▁approccio	-8.59278
▁lingua	-8.59424
▁correttamente	-8.59433
▁quello	-8.59628
▁dettagli	-8.59698
▁cittadini	-8.59785
▁produttività	-8.59789
▁serie	-8.59884
▁squadra	-8.59887
▁peso	-8.60155
▁Roma	-8.60297
▁cambiare	-8.60298
▁ottimizzare	-8.60507
▁avanzate	-8.60593
▁costante	-8.60607
▁studenti	-8.60715
▁vasta	-8.60929
▁Nel	-8.61105
▁ostacoli	-8.61684
▁analizzare	-8.61774
▁centro	-8.61776
▁altre	-8.6179
▁necessarie	-8.61977
▁portato	-8.62069
▁tradizione	-8.62074
▁sviluppatori	-8.6214
▁oltre	-8.62298
▁settore	-8.626
▁stesso	-8.62776
▁ideale	-8.62894
▁nuovi	-8.62941
▁visitatori	-8.63121
▁nome	-8.63244
uso	-8.63716
▁Windows	-8.63794
▁livello	-8.63959
Non	-8.64161
▁costi	-8.64426
▁condividere	-8.64433
▁sente	-8.64636
▁verificare	-8.64699
D	-8.64815
▁zona	-8.64854
▁eventi	-8.64982
▁libertà	-8.65054
▁posizione	-8.65095
utente	-8.65146
▁sera	-8.65246
▁innovative	-8.65411
▁esprimere	-8.6553
▁costruire	-8.65563
▁perdita	-8.65612
▁quali	-8.65677
▁storico	-8.65856
▁sarebbe	-8.66007
▁significato	-8.66087
▁piatto	-8.66149
▁tue	-8.66275
▁Gli	-8.6644
▁Ment	-8.66813
▁visitare	-8.6685
▁ricca	-8.66959
▁contro	-8.67274
▁documento	-8.67345
▁visione	-8.67605
▁noi	-8.67702
▁parti	-8.67822
▁elementi	-8.68115
▁spiaggia	-8.68483
ti	-8.68644
▁funzione	-8.68722
▁motivo	-8.68811
▁creato	-8.6901
▁queste	-8.69402
▁ristorante	-8.69562
▁obiettivo	-8.69637
▁utile	-8.69714
▁rischi	-8.69732
▁eseguire	-8.69755
▁cibo	-8.69825
▁questi	-8.70145
▁complessi	-8.70211
▁fresca	-8.70326
▁quel	-8.7046
▁chiaro	-8.70596
▁fondamentali	-8.7078
▁relazioni	-8.7078
▁vitale	-8.70865
▁nonna	-8.70871
▁molte	-8.70951
▁lasciare	-8.71071
▁sentiva	-8.71086
▁finale	-8.71325
▁gente	-8.71778
▁cercare	-8.71957
▁nonostante	-8.72054
▁bambini	-8.72073
▁diventare	-8.72178
▁mie	-8.72365
▁completa	-8.72393
interno	-8.72774
▁benessere	-8.72955
▁matrimonio	-8.73005
efficienza	-8.73089
▁consapevolezza	-8.73126
▁cambiamento	-8.7315
▁pianificare	-8.73164
▁scoperta	-8.73456
▁iniziare	-8.73458
▁crescere	-8.73538
▁protezione	-8.7362
▁misure	-8.73896
▁risposta	-8.739
▁equilibrio	-8.73971
▁po	-8.74078
▁sostanze	-8.74111
▁utilizza	-8.74291
▁funziona	-8.74785
▁equilibrata	-8.7482
▁segreto	-8.74893
▁stessa	-8.74972
▁apprendimento	-8.75054
▁paura	-8.75156
▁pagamento	-8.75423
▁presenta	-8.7546
▁Drupal	-8.75498
▁serenità	-8.75546
▁giusta	-8.75581
▁abitanti	-8.75721
▁competenze	-8.75908
▁sembra	-8.75975
▁possa	-8.76183
isola	-8.76212
▁impegno	-8.76345
▁determinazione	-8.76393
▁framework	-8.76409
▁Alex	-8.76597
▁Colosseo	-8.76618
▁complesse	-8.76636
▁dipendenti	-8.76763
▁situazioni	-8.7706
▁Una	-8.77171
▁utilizzato	-8.77287
▁cliente	-8.77291
▁frutta	-8.77304
▁abbiamo	-8.77352
▁iniziò	-8.77407
▁componenti	-8.77497
▁semplice	-8.78016
▁significativo	-8.78055
▁informate	-8.78535
▁Mary	-8.78536
▁cercando	-8.78644
▁regolare	-8.78752
▁creatività	-8.78907
▁professionale	-8.79066
▁fiori	-8.79494
▁and	-8.7954
▁vantaggio	-8.79546
▁fornisce	-8.79587
▁donna	-8.79618
)?	-8.79728
▁umana	-8.79776
▁Con	-8.79972
alla	-8.80069
▁avevano	-8.801
▁culture	-8.8061
▁rendere	-8.80806
▁gioco	-8.80898
▁mancanza	-8.80902
▁migliorando	-8.81013
▁devo	-8.81137
▁servono	-8.81156
▁Apache	-8.81298
▁Milano	-8.81572
▁identificare	-8.81666
▁complessità	-8.81755
▁artificiale	-8.82109
▁efficaci	-8.82193
▁avrebbe	-8.82281
▁luoghi	-8.82979
▁piccolo	-8.82991
Si	-8.83003
▁momenti	-8.83209
▁principali	-8.83235
▁dedizione	-8.83379
▁senso	-8.83783
▁amico	-8.83854
▁mostra	-8.84282
▁influenza	-8.84303
▁soddisfazione	-8.84443
▁reso	-8.84673
▁precisione	-8.84689
▁piena	-8.84772
▁database	-8.84846
▁vedere	-8.84995
▁giardino	-8.85057
▁Russia	-8.85202
▁sembrava	-8.85408
▁adattarsi	-8.8551
▁A	-8.85518
▁campo	-8.86139
▁caffè	-8.86146
▁contesto	-8.86199
▁offrono	-8.86482
▁ambientale	-8.86538
▁concentrazione	-8.86676
▁negative	-8.86876
▁politica	-8.86959
▁Laravel	-8.86961
▁controllare	-8.87059
▁ore	-8.8711
▁formato	-8.8727
▁felice	-8.87568
▁palestra	-8.8817
Tom	-8.8832
▁RedHat	-8.88392
▁scoperto	-8.88627
▁aree	-8.88671
▁alimenti	-8.88807
▁lui	-8.89033
▁godersi	-8.89254
▁continua	-8.8943
▁dovuto	-8.89507
▁ricchezza	-8.89732
tanto	-8.8984
F	-8.90427
▁nutrienti	-8.90671
opportunità	-8.90783
era	-8.91389
COUNT	-8.91571
RY	-8.91738
▁aspetto	-8.91827
▁aziendale	-8.92065
▁spese	-8.92488
▁varietà	-8.92587
▁alcune	-8.92653
estero	-8.92656
te	-8.92829
▁computer	-8.93007
▁miei	-8.93105
▁qualsiasi	-8.9319
▁aumento	-8.932
▁generazioni	-8.93283
▁sociale	-8.93381
▁vero	-8.93777
▁proprietà	-8.93898
▁poteva	-8.94019
▁azienda	-8.9418
▁libro	-8.94469
▁sensazione	-8.94936
uomo	-8.95271
to	-8.95418
▁visita	-8.95972
▁documentazione	-8.96435
▁facendo	-8.96439
▁artisti	-8.96641
▁cielo	-8.96764
▁consumo	-8.96801
▁connessione	-8.96894
interfaccia	-8.96997
▁trovato	-8.97014
▁materiali	-8.97142
▁disponibile	-8.97315
▁preparazione	-8.97526
▁finalmente	-8.97566
▁librerie	-8.97592
▁iniziato	-8.97624
▁migliori	-8.97704
▁grassi	-8.97767
▁lasciato	-8.97847
▁me	-8.98063
PER	-8.98083
▁già	-8.98093
SON	-8.98098
▁collaborazione	-8.98103
▁membri	-8.98205
▁eventuali	-8.98232
▁oggetti	-8.98354
▁giusto	-8.98378
vano	-8.98641
▁stanno	-8.98656
▁potuto	-8.98702
▁studio	-8.98741
▁appieno	-8.9893
▁alto	-8.99091
▁noto	-8.99177
▁festa	-8.99655
▁flessibilità	-8.99954
▁sana	-9.00021
▁contenuto	-9.00024
▁narratore	-9.00084
▁generale	-9.001
▁Sofia	-9.00235
le	-9.00568
▁Java	-9.00581
▁volte	-9.00699
▁crea	-9.0108
▁adottare	-9.01141
▁presente	-9.01203
▁complessa	-9.01237
▁operazioni	-9.01303
▁consapevoli	-9.01327
▁voleva	-9.01338
▁modello	-9.01379
▁riduzione	-9.01409
▁mano	-9.01526
anno	-9.0154
▁prova	-9.01643
▁riferimento	-9.01665
▁soddisfare	-9.01678
▁passo	-9.01799
attenzione	-9.01818
▁ragazza	-9.01843
▁to	-9.02045
▁parco	-9.02199
▁possibili	-9.0241
▁carne	-9.02449
▁Firenze	-9.02518
▁poi	-9.02549
▁leggere	-9.02592
Sì	-9.02674
▁WordPress	-9.02676
▁spazio	-9.02695
▁globale	-9.02797
▁'	-9.0281
▁consiste	-9.02946
▁utilizzando	-9.03024
▁motore	-9.03102
▁bene	-9.03114
▁culturali	-9.03218
▁felicità	-9.03254
▁gruppo	-9.03295
idea	-9.03362
▁punti	-9.03384
▁offerte	-9.03508
▁navigazione	-9.03631
▁of	-9.03661
▁comune	-9.03719
▁necessari	-9.04039
▁supporto	-9.04238
▁plugin	-9.04588
lla	-9.04649
▁Linux	-9.04734
azione	-9.04751
▁Grazie	-9.04775
▁paesaggio	-9.04787
Se	-9.0493
▁Leo	-9.04989
▁regolarmente	-9.05134
▁riducendo	-9.05189
▁memoria	-9.05447
▁future	-9.05568
▁versione	-9.05594
▁indimenticabile	-9.05606
▁sano	-9.05673
▁necessaria	-9.05726
▁chiara	-9.05756
▁arte	-9.05925
▁notevolmente	-9.05935
▁impostazioni	-9.05941
▁vino	-9.06099
▁analisi	-9.06252
▁crisi	-9.06852
▁pronto	-9.06891
▁individuare	-9.06898
▁differenza	-9.06972
▁apprezzare	-9.06992
▁manutenzione	-9.07116
▁oggi	-9.07133
s	-9.07183
▁vento	-9.0731
▁fiume	-9.07368
▁vantaggi	-9.07551
▁via	-9.07559
▁ora	-9.07609
▁terra	-9.07642
▁lunga	-9.07702
▁tranquillità	-9.07712
▁fase	-9.07736
▁doveva	-9.0846
Con	-9.08483
▁gioia	-9.08596
▁capì	-9.0875
▁vicino	-9.08916
▁effetti	-9.08946
▁utilizzati	-9.08983
▁media	-9.09044
▁godere	-9.09095
▁clima	-9.09111
▁calma	-9.09238
▁sapori	-9.0934
▁ne	-9.09409
▁accesso	-9.09432
▁sostegno	-9.09483
▁conoscere	-9.0957
▁ottimale	-9.09799
▁fino	-9.09877
▁dietro	-9.09908
▁personalizzare	-9.09951
▁particolare	-9.10038
▁tutta	-9.10271
▁quotidiane	-9.10542
▁Se	-9.10612
▁rapidamente	-9.10926
identità	-9.10944
▁messaggio	-9.10997
▁chiese	-9.11452
▁famosa	-9.11521
▁attuale	-9.11533
▁garantendo	-9.1187
▁rese	-9.11896
▁permettendo	-9.11903
▁russa	-9.11925
▁comunicare	-9.11932
▁resistenza	-9.1198
▁ben	-9.12045
▁pensieri	-9.1212
▁mentale	-9.12161
▁divenne	-9.12168
▁solare	-9.12378
)?"	-9.12387
▁elemento	-9.1255
▁miglioramento	-9.12692
▁assistenza	-9.12698
▁culinaria	-9.12929
▁norme	-9.13071
▁influenzare	-9.13081
▁cerca	-9.133
▁influire	-9.13361
▁personalizzato	-9.13366
▁richiedere	-9.13386
▁procedere	-9.1362
▁istruzioni	-9.13621
▁metodo	-9.13643
▁tecnica	-9.1379
▁procedura	-9.13799
Italia	-9.1382
ARE	-9.13851
▁studiare	-9.14071
▁armonia	-9.14108
▁personali	-9.14154
are	-9.14167
▁sentì	-9.14198
▁colori	-9.14224
▁verifica	-9.14243
▁quale	-9.14401
▁seconda	-9.14614
▁stabilire	-9.14683
▁C	-9.14734
▁cambiamenti	-9.14745
▁montagna	-9.14804
▁puoi	-9.15155
▁danni	-9.15162
▁Quali	-9.15201
▁condizione	-9.15503
FOO	-9.15522
▁fisico	-9.15658
intelligenza	-9.15821
▁macchina	-9.15918
▁profumo	-9.1592
▁meno	-9.16081
▁accade	-9.16165
artista	-9.16382
▁pasta	-9.16405
▁tradizionali	-9.16561
▁richiedono	-9.16595
▁notte	-9.16609
▁poté	-9.16633
▁disse	-9.16643
▁preparare	-9.16811
TW	-9.16812
▁potere	-9.16924
▁nota	-9.17345
▁buon	-9.17356
energia	-9.17582
▁ammirare	-9.17614
▁responsabilità	-9.17621
▁funzionamento	-9.17624
▁caratterizzata	-9.17631
▁routine	-9.17646
▁prenotazione	-9.17649
▁ascoltare	-9.17727
▁riflettere	-9.17733
▁promuovere	-9.17852
▁negli	-9.18037
ICE	-9.18107
▁strumento	-9.18196
▁classe	-9.18279
▁responsabile	-9.18413
▁reale	-9.18464
▁circonda	-9.1858
K	-9.1859
▁espresso	-9.18629
▁chiedere	-9.18666
▁sicura	-9.18742
▁li	-9.18767
altra	-9.18936
▁quelli	-9.18942
▁fronte	-9.1915
▁acqua	-9.19203
▁pasto	-9.19243
sonalizzazione	-9.19518
▁dispositivi	-9.19635
▁destinazione	-9.1965
▁autorità	-9.19831
▁simbolo	-9.19987
▁offrendo	-9.20061
▁browser	-9.20384
OS	-9.20395
▁misura	-9.20428
organizzazione	-9.20469
accesso	-9.20518
▁vacanza	-9.20572
▁giorni	-9.20697
▁umano	-9.20819
aperto	-9.21113
▁segreti	-9.21146
▁oggetto	-9.21231
▁installare	-9.21287
▁consentendo	-9.21292
▁Ci	-9.21635
▁fonte	-9.21698
▁storici	-9.21728
▁costruzione	-9.21804
rono	-9.22011
▁far	-9.22139
▁paesi	-9.2218
RAME	-9.22238
SYSTEM	-9.22409
▁trasporto	-9.2255
ci	-9.22647
▁bar	-9.22648
▁aspetti	-9.22779
▁aspettative	-9.22884
▁realizzare	-9.22964
▁presenti	-9.23112
▁virtuale	-9.23265
▁adatta	-9.23355
▁verdure	-9.23366
▁sapore	-9.2337
▁protagonista	-9.23405
▁turisti	-9.23637
▁mesi	-9.23991
economia	-9.24081
▁bambino	-9.24674
▁siamo	-9.24702
▁romana	-9.24724
▁libero	-9.24803
▁costa	-9.24852
▁mezzo	-9.25574
▁finanziaria	-9.25634
▁relazione	-9.25782
▁modifiche	-9.25784
▁devi	-9.25909
▁incontrare	-9.26079
▁scelto	-9.26126
▁fonti	-9.26199
dobbiamo	-9.26219
▁tuoi	-9.26318
▁settimana	-9.26323
▁lavorato	-9.26358
▁originale	-9.26478
▁selezionare	-9.26512
▁stanza	-9.2655
PLACE	-9.26581
▁patrimonio	-9.266
▁veloce	-9.26667
▁sensibili	-9.26794
▁nuoto	-9.26851
▁specie	-9.26865
▁ragazzo	-9.26871
▁sociali	-9.26897
▁adatto	-9.27001
▁richiesto	-9.27034
impresa	-9.27067
▁mangiare	-9.27092
▁massima	-9.2735
▁scrittura	-9.27427
▁avesse	-9.2744
▁freschi	-9.27502
▁pensare	-9.27626
▁dato	-9.27738
▁disponibilità	-9.27795
▁ragione	-9.27817
▁pesce	-9.27874
▁moderna	-9.27969
R	-9.28116
▁profonda	-9.28143
▁internazionale	-9.28247
▁diventata	-9.28284
▁campagna	-9.28467
▁ricette	-9.28483
▁necessita	-9.28542
▁comando	-9.28726
▁padre	-9.28744
▁Toscana	-9.2877
▁compromettere	-9.28775
▁allo	-9.28803
▁corsa	-9.28852
ché	-9.29094
▁tornare	-9.29162
▁progettazione	-9.29207
▁disposizione	-9.29332
▁tiene	-9.29365
▁prezzo	-9.29434
▁rapporto	-9.29493
▁consegna	-9.29604
▁antica	-9.29693
▁data	-9.29763
▁raccolta	-9.2979
▁discussione	-9.29841
▁passeggiata	-9.29905
▁faccio	-9.29949
▁periodo	-9.30025
▁metodi	-9.30364
▁ospiti	-9.30782
▁mettere	-9.30892
▁questione	-9.30971
▁preoccupazioni	-9.30981
▁uomo	-9.31169
▁leader	-9.31527
▁pressione	-9.31694
▁soprattutto	-9.31738
▁madre	-9.3187
▁temperatura	-9.32092
▁pianeta	-9.32139
▁alberi	-9.32269
▁trascorso	-9.32271
▁animali	-9.32324
▁esperto	-9.32376
▁imparato	-9.32446
▁intorno	-9.32522
TIC	-9.32582
▁rispondere	-9.32672
amore	-9.32751
▁certificato	-9.32755
apprendimento	-9.32834
▁rumore	-9.33042
iamo	-9.331
▁colore	-9.33165
▁trattamento	-9.33322
ING	-9.33324
▁sostenibilità	-9.33349
▁frase	-9.3339
▁onde	-9.33461
▁difficili	-9.33598
▁Non	-9.33609
▁parlare	-9.33697
▁domanda	-9.33706
▁economico	-9.33722
▁strutture	-9.33764
▁ricevuto	-9.33798
▁fresco	-9.33803
immagine	-9.34202
▁pranzo	-9.34277
▁cibi	-9.34325
▁sfruttare	-9.34534
▁popolazione	-9.34538
▁superficie	-9.34598
▁scena	-9.34606
▁termini	-9.34635
▁quelle	-9.34693
▁numero	-9.34788
▁processi	-9.34831
▁fece	-9.35139
▁effetto	-9.35234
▁appena	-9.35302
▁sostenibili	-9.35398
▁scoprì	-9.35506
▁aziendali	-9.35854
▁film	-9.35894
▁rapido	-9.36084
▁speranza	-9.36086
▁tradizionale	-9.36144
▁perso	-9.36186
▁dipende	-9.36187
▁realizzazione	-9.36196
▁caldo	-9.36236
▁verità	-9.36302
▁s	-9.36314
▁inizia	-9.36354
▁pagina	-9.36389
▁configurare	-9.36455
▁S	-9.36462
▁antiche	-9.36606
▁evento	-9.36734
▁personalizzate	-9.36749
▁interiore	-9.36835
▁partita	-9.36835
▁medico	-9.36876
▁aperta	-9.37097
▁genitori	-9.37185
▁presto	-9.37517
▁Qual	-9.37591
▁sintesi	-9.3761
▁rinnovo	-9.37648
▁residenza	-9.37797
▁pagine	-9.37804
▁entro	-9.38107
avventura	-9.38222
▁pubblica	-9.38243
▁utilizzate	-9.3842
▁personalità	-9.38484
▁scienziati	-9.38671
▁Stati	-9.38804
▁efficienza	-9.38822
▁individuali	-9.38828
▁negozio	-9.39071
▁speciali	-9.39198
▁italiano	-9.3922
▁stagione	-9.39234
▁antichi	-9.39314
▁esistenza	-9.39394
▁ricordi	-9.39499
▁funzioni	-9.39507
▁tema	-9.39629
▁include	-9.39743
aumento	-9.39832
▁aumentando	-9.39982
▁prospettiva	-9.40035
▁PHP	-9.40193
▁amore	-9.4043
▁giovani	-9.40569
▁personalizzata	-9.40678
▁comportamento	-9.40899
▁contratto	-9.41053
▁Marco	-9.41217
LANGUAGE	-9.41287
▁modulo	-9.41314
▁sfida	-9.41326
COD	-9.41346
WO	-9.41485
▁governo	-9.41555
▁individuo	-9.41633
▁polizia	-9.41848
▁componente	-9.41989
▁soggiorno	-9.42264
▁inoltre	-9.42422
▁presentazione	-9.42476
▁completamente	-9.42515
▁primavera	-9.42567
▁ricordare	-9.42743
▁alimentari	-9.42935
ta	-9.42965
▁rilassante	-9.43071
▁risoluzione	-9.43078
▁monitorare	-9.43104
▁preservare	-9.43276
▁usare	-9.43328
▁stesse	-9.43342
▁raggiunto	-9.43431
▁secoli	-9.43599
▁discutere	-9.43627
▁donne	-9.43695
ne	-9.43827
▁pieno	-9.43964
▁fascino	-9.43969
▁costantemente	-9.44263
▁generazione	-9.44379
mo	-9.44387
▁uniche	-9.44426
▁utilizzata	-9.44504
▁umani	-9.44534
▁forme	-9.44585
▁montagne	-9.44615
▁concentrarsi	-9.44687
▁Sophia	-9.44692
▁riciclaggio	-9.44774
▁aperto	-9.4482
▁gusto	-9.44889
▁notare	-9.44973
Sono	-9.45208
▁valle	-9.45215
▁ricevere	-9.45231
operazione	-9.45333
▁dettagliata	-9.45375
▁utilizzo	-9.4545
▁pratiche	-9.45515
▁nulla	-9.45544
evento	-9.45611
▁dispositivo	-9.45664
▁traffico	-9.45768
▁percezione	-9.4586
▁accogliente	-9.46114
▁carriera	-9.46165
▁requisiti	-9.46167
▁acquistare	-9.46193
▁procedure	-9.46278
▁Italia	-9.46296
▁coraggio	-9.46432
▁secolo	-9.46456
▁tratta	-9.46493
▁priorità	-9.46507
▁caratterizza	-9.46523
▁programma	-9.46599
▁caccia	-9.4678
▁calcio	-9.46938
▁umane	-9.47032
ufficio	-9.47079
▁lago	-9.47091
▁contemporanea	-9.47301
▁sapeva	-9.47455
▁pagare	-9.47511
▁profondo	-9.47593
▁nonno	-9.47685
▁Liguria	-9.47769
▁diritti	-9.47829
▁valori	-9.4784
▁anticipo	-9.47876
▁condivisione	-9.47935
▁lasciando	-9.47946
▁sentimenti	-9.47988
▁avanzati	-9.48123
▁utili	-9.4813
▁Ho	-9.48219
▁combinazione	-9.48285
▁foglie	-9.48374
▁politiche	-9.48407
▁faceva	-9.48528
▁civiltà	-9.48536
▁economiche	-9.48548
▁lettura	-9.48686
▁personalizzati	-9.48933
▁teoria	-9.4925
▁sonno	-9.49288
▁paziente	-9.49307
▁rendendo	-9.49467
▁proteine	-9.49485
▁occhi	-9.49645
▁carta	-9.49853
▁considerato	-9.49869
▁saranno	-9.50166
Ha	-9.50171
▁scientifica	-9.50217
▁cena	-9.50243
▁rilassarsi	-9.50253
▁riflessione	-9.50375
▁beneficio	-9.50382
▁tanto	-9.50552
▁anno	-9.50667
▁marketing	-9.50733
OF	-9.50804
▁immagini	-9.50846
▁arrivare	-9.50857
▁Spring	-9.50936
▁Python	-9.50994
▁influenzano	-9.51003
▁tenere	-9.51103
▁avevo	-9.51165
▁Uniti	-9.51171
▁cammino	-9.51187
▁raccogliere	-9.51264
▁massimo	-9.51274
▁Cremlino	-9.51794
P	-9.51891
▁sogno	-9.51898
mi	-9.5207
▁regole	-9.52159
▁terreno	-9.52169
▁famoso	-9.52198
▁piacevole	-9.52282
▁contatto	-9.52533
▁interesse	-9.52625
▁pochi	-9.52811
▁linea	-9.52824
▁pane	-9.52887
▁Luca	-9.52945
▁abitudini	-9.52948
aggiornamento	-9.52989
architettura	-9.5308
▁partecipare	-9.53177
▁imparò	-9.53211
▁errore	-9.53236
▁licenza	-9.53254
▁auto	-9.53339
▁acque	-9.53568
anima	-9.53679
▁legge	-9.53752
▁consigli	-9.53838
prendersi	-9.53844
▁imprese	-9.53946
▁uccelli	-9.54087
▁sapere	-9.54132
▁affascinante	-9.54159
▁organizzare	-9.54224
▁facilità	-9.54236
RedHat	-9.54277
▁parcheggio	-9.54337
▁prezzi	-9.54493
▁bisogna	-9.54526
▁saggio	-9.54554
▁coinvolgente	-9.54659
▁tecnico	-9.54792
▁influenzato	-9.54794
▁considerazione	-9.5488
▁compito	-9.54895
ecosistema	-9.54921
▁positivo	-9.54951
▁scrivere	-9.5498
▁volo	-9.55041
▁trasparenza	-9.55046
▁Luna	-9.55109
▁consentono	-9.55247
▁Sarah	-9.55366
▁soddisfacente	-9.55401
▁effettuare	-9.55402
▁allenamento	-9.55404
▁continuare	-9.55429
▁pacchetti	-9.55543
epoca	-9.55612
alimentazione	-9.55639
▁contribuire	-9.55666
▁trovava	-9.5578
▁potenza	-9.55786
▁croniche	-9.55926
▁gravi	-9.56005
▁dire	-9.56091
▁scuola	-9.56111
▁solida	-9.56178
▁storica	-9.56259
▁consapevole	-9.56268
▁partenza	-9.56474
cucina	-9.56478
▁lavorando	-9.56544
▁individui	-9.56623
'[	-9.56638
▁sembrano	-9.56691
▁attenta	-9.5675
▁potesse	-9.56932
Dov	-9.56949
▁dare	-9.56962
edificio	-9.57025
▁progettato	-9.57217
▁compagnia	-9.57291
▁fanno	-9.57517
▁tipici	-9.57662
▁case	-9.57794
▁verde	-9.57909
▁magia	-9.57981
▁causare	-9.58009
▁rimanere	-9.58049
▁sotto	-9.58062
▁figli	-9.58081
hotel	-9.58124
▁importanza	-9.58213
▁giocatori	-9.58299
▁ero	-9.58393
▁presso	-9.58457
▁costo	-9.58548
▁cambiato	-9.58557
▁variabili	-9.58748
▁vecchio	-9.58788
▁sentito	-9.58874
iò	-9.58999
▁riesce	-9.59058
▁anima	-9.59278
▁indispensabile	-9.59346
▁guardare	-9.59521
▁preferenze	-9.59663
▁diverso	-9.59713
▁libri	-9.59729
▁viaggiare	-9.59745
▁intende	-9.59746
▁lascia	-9.59815
▁Galleria	-9.59851
▁lontano	-9.59937
Emma	-9.59956
▁avanzata	-9.60111
▁limiti	-9.60155
▁influenzata	-9.60191
▁segno	-9.60259
▁comuni	-9.60287
▁digitale	-9.60287
▁Sicilia	-9.60321
▁prospettive	-9.60329
▁spiegò	-9.60413
▁trascorrere	-9.60703
▁emissioni	-9.6073
▁concetto	-9.60882
▁posti	-9.60882
universo	-9.60924
▁semplificare	-9.61
▁aromatiche	-9.61043
▁autentica	-9.61084
▁vari	-9.6109
▁assicurars	-9.61097
▁rifiuti	-9.61114
▁partire	-9.61132
influenza	-9.61345
▁utilizzano	-9.61463
▁chimiche	-9.61476
▁moda	-9.61708
▁Debian	-9.61751
▁rappresentano	-9.61787
auto	-9.61826
▁Mediterraneo	-9.61841
▁tramonto	-9.61846
▁finanziarie	-9.61978
▁fuori	-9.62029
▁fattore	-9.62035
▁lei	-9.62046
▁popolo	-9.62097
▁emergenza	-9.62098
▁concetti	-9.62119
▁ritardi	-9.6212
▁sentir	-9.62129
▁diventa	-9.62133
▁ottiene	-9.62149
▁intenso	-9.62208
▁tecnici	-9.62219
▁trovano	-9.6233
▁veramente	-9.62395
▁ed	-9.62402
▁giocare	-9.62414
▁calda	-9.62501
▁pazienza	-9.62547
▁sogni	-9.62596
▁Server	-9.62671
▁guerra	-9.62686
▁essenza	-9.62852
▁esaminare	-9.62867
▁dimensioni	-9.63036
ano	-9.63039
▁notato	-9.63089
▁riconoscere	-9.63113
Drupal	-9.63125
▁capo	-9.632
TO	-9.6323
▁navigare	-9.63237
▁specifici	-9.63347
▁caricamento	-9.63364
unica	-9.63381
▁Lombardia	-9.63389
▁movimento	-9.63402
▁social	-9.63505
olio	-9.63516
▁motivazione	-9.63612
▁popolare	-9.63622
▁compatibilità	-9.63678
▁qualcuno	-9.63695
▁dà	-9.63793
▁cercato	-9.63932
▁design	-9.63941
▁P	-9.63969
▁sport	-9.64063
▁curriculum	-9.64082
▁ulteriori	-9.64187
▁open	-9.64463
▁raggiunge	-9.64482
▁agire	-9.64525
▁garantisc	-9.64544
▁mozzafiato	-9.64591
▁dolce	-9.64594
lo	-9.64596
▁architettura	-9.64608
▁coinvolti	-9.64648
▁opinioni	-9.64666
▁gas	-9.64697
▁corretta	-9.6471
▁opera	-9.6471
▁potevano	-9.64751
▁Giovanni	-9.64757
▁color	-9.64824
▁accessibile	-9.64916
▁penna	-9.65136
▁primo	-9.65326
▁legame	-9.65362
area	-9.65397
▁estrema	-9.65513
▁farlo	-9.65692
▁strategica	-9.65694
▁dimenticare	-9.65732
▁piattaforme	-9.65768
▁prove	-9.65858
effetto	-9.65899
▁vittoria	-9.6593
▁dovrebbe	-9.66015
▁pronti	-9.66429
▁emozionante	-9.66526
▁piccola	-9.66549
▁ricco	-9.66903
▁attiva	-9.6691
OFF	-9.66957
▁vitamine	-9.6701
▁CodeIgniter	-9.67063
GU	-9.67104
equilibrio	-9.67127
EST	-9.6718
▁ostacolo	-9.67189
▁mattina	-9.67225
▁notò	-9.67259
▁aprire	-9.67305
▁edifici	-9.67314
▁comporta	-9.67338
▁interessi	-9.67339
▁numerose	-9.67343
à	-9.67358
▁budget	-9.67449
▁ufficiale	-9.67552
umanità	-9.67583
▁potente	-9.67632
▁divorzio	-9.67888
▁presentare	-9.67957
▁milanese	-9.67993
▁rossa	-9.68032
▁incontrato	-9.68117
▁diversità	-9.68128
▁selezione	-9.68321
PRO	-9.68448
▁flessibile	-9.68611
rà	-9.68877
▁subito	-9.68886
▁contiene	-9.68938
▁avanti	-9.69057
▁artistica	-9.69081
▁lasciarsi	-9.69087
Unione	-9.69176
▁contribuito	-9.6928
▁San	-9.6933
▁considerata	-9.6935
▁pronta	-9.6952
inquinamento	-9.69541
▁considerando	-9.69816
ampia	-9.699
▁va	-9.6991
▁affidabile	-9.6994
▁riva	-9.69948
▁rispettare	-9.69952
▁particolarmente	-9.70038
▁centrale	-9.70046
Puoi	-9.70069
▁evoluzione	-9.70109
▁unici	-9.70135
▁piccole	-9.70317
▁famiglie	-9.70375
▁intelligenza	-9.70401
▁paesaggi	-9.70515
No	-9.70543
nte	-9.70693
▁JavaScript	-9.70737
▁dentro	-9.7075
▁salmone	-9.7084
▁domande	-9.70864
inizio	-9.70894
▁entusiasmo	-9.71015
▁monumenti	-9.71068
▁paure	-9.71086
▁tutela	-9.71101
▁serata	-9.71394
▁ambientali	-9.71403
▁ritmo	-9.71472
▁piedi	-9.7162
▁aggiornare	-9.71621
▁intuitiva	-9.71751
impronta	-9.71822
▁hai	-9.71841
▁casi	-9.72054
▁dolci	-9.72108
▁moderne	-9.72264
▁diversa	-9.72359
▁tessuto	-9.7241
▁te	-9.72556
▁sabbia	-9.72581
▁bere	-9.72591
▁nascosti	-9.7271
▁verdura	-9.7308
▁altrimenti	-9.7311
▁sodo	-9.73123
d	-9.73228
CMS	-9.7332
▁spiagge	-9.73453
▁perfetta	-9.73533
Posso	-9.73556
▁indelebile	-9.7356
▁riunione	-9.73717
▁fondo	-9.7375
innovazione	-9.73767
▁Terra	-9.73936
▁Ma	-9.73989
▁ultimi	-9.74002
▁aggiornato	-9.74145
▁stabile	-9.74227
TATE	-9.74297
▁piccoli	-9.74469
▁foto	-9.74567
zione	-9.74597
▁antico	-9.74718
▁francese	-9.74733
▁relax	-9.74967
▁dettaglio	-9.75055
▁Mi	-9.75136
▁implementare	-9.75186
▁visibilità	-9.753
▁ripercussioni	-9.75377
opzione	-9.75461
▁radici	-9.7554
▁Cappella	-9.7555
▁linguaggi	-9.75554
▁alimentazione	-9.75571
▁dipendenze	-9.75587
▁esterni	-9.75594
▁museo	-9.75686
▁trasmettere	-9.75902
▁biglietto	-9.75956
▁includono	-9.75957
▁riuscì	-9.76027
▁meta	-9.76301
▁bonifico	-9.76346
▁Maya	-9.76379
▁generare	-9.76413
▁provare	-9.76486
▁sanitaria	-9.76504
▁funzionare	-9.7653
▁giornate	-9.76628
ottima	-9.76798
▁potr	-9.76807
▁was	-9.76921
▁Kaito	-9.7693
▁ristoranti	-9.76958
▁Sono	-9.77112
▁sale	-9.77157
Lo	-9.77274
▁occasioni	-9.77318
▁mondiale	-9.77321
abbonamento	-9.77323
ante	-9.7739
▁logica	-9.77602
▁vacanze	-9.77603
▁coerente	-9.77656
▁durata	-9.77676
▁rischia	-9.77716
▁colleghi	-9.78023
▁internet	-9.78045
attenta	-9.78075
▁passioni	-9.7813
▁collezione	-9.78147
assicurazione	-9.7818
Maria	-9.78219
▁investire	-9.78275
▁classica	-9.78343
▁perfetto	-9.78397
▁portando	-9.78431
▁semplicità	-9.78451
▁menu	-9.78534
▁adattamento	-9.7872
▁chiarezza	-9.78728
▁innovazione	-9.78768
▁europea	-9.78825
▁source	-9.78923
▁frizione	-9.7893
ha	-9.79044
▁sento	-9.79239
▁istituzioni	-9.79253
▁diventato	-9.79264
▁separazione	-9.79372
▁mediterranea	-9.7945
▁figlio	-9.79561
URI	-9.7961
▁aiutano	-9.79639
▁voce	-9.79659
▁scoperte	-9.79688
▁letto	-9.79761
▁aggiungere	-9.79766
▁altro	-9.79867
▁pubblici	-9.79945
▁raccontare	-9.79948
▁Piemonte	-9.79971
▁efficacemente	-9.80048
▁re	-9.80067
▁ricordo	-9.80092
▁cause	-9.80259
▁secondo	-9.80342
▁tendenze	-9.80374
▁settimane	-9.80386
▁semplici	-9.8042
▁preciso	-9.80441
▁pazienti	-9.8058
Milano	-9.80587
▁differenze	-9.80604
▁idea	-9.80717
▁saggezza	-9.80769
▁caratterizzato	-9.80802
▁suono	-9.80825
▁Corsica	-9.80829
▁precisa	-9.80835
▁situata	-9.80864
▁svolge	-9.80895
▁colline	-9.80979
▁assicurar	-9.80989
▁migliora	-9.80991
▁angolo	-9.81131
▁correre	-9.81159
▁signor	-9.81213
▁descrivere	-9.81249
▁appassionati	-9.81277
▁temi	-9.81339
▁partecipanti	-9.81383
▁ambienti	-9.81449
▁efficienti	-9.81487
▁viaggi	-9.81522
▁definire	-9.81603
Di	-9.81604
ANY	-9.81649
▁alimentare	-9.81667
▁permettono	-9.81785
▁stili	-9.81806
▁meditazione	-9.81874
▁automatico	-9.81919
aiuto	-9.81948
▁competitività	-9.82032
▁interessante	-9.8207
▁prevede	-9.82083
▁pensiero	-9.82106
▁potra	-9.82127
▁modificare	-9.822
▁catturare	-9.82353
ora	-9.82514
▁cambia	-9.82559
▁danza	-9.82559
▁uscire	-9.82596
▁potenzialità	-9.82608
▁rapida	-9.82627
▁attrazioni	-9.82655
▁forze	-9.82687
COMP	-9.82758
▁conseguenza	-9.82772
Laravel	-9.82779
ing	-9.82795
▁fratello	-9.82862
▁compiti	-9.82988
▁partecipazione	-9.83085
▁determinato	-9.83094
▁Sistina	-9.83117
▁alternative	-9.83289
▁notevole	-9.83334
▁verdi	-9.8336
▁volontà	-9.83725
▁breve	-9.83846
▁passare	-9.83881
▁pericolo	-9.83901
▁valido	-9.8395
▁immergersi	-9.84019
▁adeguate	-9.84115
▁comportare	-9.8415
▁professionisti	-9.84222
▁fossero	-9.84236
ansia	-9.84268
▁olio	-9.8439
▁ritardo	-9.84403
▁critiche	-9.84405
▁filosofia	-9.84582
esercizio	-9.84596
▁dolore	-9.84618
▁corsi	-9.8465
▁foresta	-9.84673
efficacia	-9.84729
▁lingue	-9.84835
▁uomini	-9.84941
▁treno	-9.84967
▁aggiornamenti	-9.84994
▁backup	-9.85004
▁giapponese	-9.85077
▁consulenza	-9.8508
▁informatici	-9.85141
▁Jack	-9.85171
▁campi	-9.85185
▁fondi	-9.85346
▁indietro	-9.85437
li	-9.85451
▁ri	-9.85467
▁programmi	-9.85652
▁conciso	-9.85676
".	-9.85719
▁Sardegna	-9.85826
▁CSS	-9.86031
▁sufficiente	-9.86039
▁pulizia	-9.86176
▁significativi	-9.86212
▁aiutato	-9.8626
▁prenotare	-9.86318
▁feste	-9.86482
▁familiari	-9.86514
▁consiglio	-9.86568
▁parola	-9.86585
▁musei	-9.86608
▁vincere	-9.86665
▁Taylor	-9.86672
▁materia	-9.86676
▁sa	-9.86771
▁visitato	-9.86775
▁trasformazione	-9.86789
▁aumenta	-9.86854
▁espressione	-9.86869
▁permise	-9.86876
▁territorio	-9.86894
▁amica	-9.86922
▁maggior	-9.86959
▁certa	-9.87035
▁capace	-9.87176
▁nazionale	-9.87199
rendono	-9.87233
▁scarsa	-9.87285
▁veicolo	-9.87338
▁profumi	-9.87342
▁genere	-9.87356
▁attesa	-9.87423
▁lavora	-9.87471
▁cela	-9.87526
▁pulsante	-9.876
▁dinamiche	-9.87685
▁magica	-9.87755
▁operativi	-9.87769
▁coinvolte	-9.8798
▁stelle	-9.87995
▁morte	-9.88084
▁biodiversità	-9.88113
▁circostante	-9.88122
▁medievali	-9.88177
▁creata	-9.88264
▁minacce	-9.88304
▁sforzo	-9.88308
▁lì	-9.88396
▁innovativo	-9.88503
▁cereali	-9.88509
▁pulita	-9.88518
▁pioggia	-9.88592
▁banca	-9.88626
▁cooperazione	-9.88633
▁esseri	-9.88779
▁PDF	-9.88863
▁fresche	-9.8892
▁ottenuto	-9.88951
estate	-9.89094
▁comfort	-9.89144
▁lavorativa	-9.89228
▁adattare	-9.89241
▁internazionali	-9.8928
▁profonde	-9.8941
▁amava	-9.8946
▁cercano	-9.89487
▁poco	-9.8964
▁privacy	-9.89648
▁informatica	-9.89662
▁calore	-9.89846
RE	-9.89884
▁validità	-9.89884
▁malattia	-9.8989
CE	-9.8992
animo	-9.89991
▁Da	-9.89997
assistenza	-9.89997
▁balcone	-9.90056
▁vitamina	-9.9006
▁fenomeno	-9.90145
▁Si	-9.90313
▁spazi	-9.90376
▁occupa	-9.90484
▁scalabilità	-9.90539
▁nascita	-9.90549
▁seguito	-9.90615
oliva	-9.9064
▁valorizzare	-9.90652
Roma	-9.90657
▁Palazzo	-9.90817
▁sembravano	-9.9087
▁particolari	-9.90878
DU	-9.90888
▁avventura	-9.90931
▁messo	-9.90961
▁pausa	-9.90988
libro	-9.91
occasione	-9.91056
▁York	-9.91122
▁innovativa	-9.91173
▁soldi	-9.91237
▁modi	-9.91285
▁accordo	-9.91469
▁sopravvivenza	-9.91478
CodeIgniter	-9.91495
▁avanzato	-9.91533
▁completo	-9.91611
▁energie	-9.91619
▁direzione	-9.91625
▁stare	-9.91731
▁beni	-9.91739
▁capita	-9.91764
▁diretto	-9.91896
▁abbigliamento	-9.92002
▁Giappone	-9.92106
▁pietra	-9.92116
▁variare	-9.92143
▁preso	-9.92235
▁Parigi	-9.92239
▁business	-9.92289
▁stavano	-9.92339
▁test	-9.92364
▁rifugio	-9.92448
▁esprime	-9.92538
▁Rinascimento	-9.92717
software	-9.92775
▁rinnovare	-9.92797
esposizione	-9.9283
▁prossimo	-9.92833
▁entrare	-9.92885
▁vissuto	-9.92894
▁specifica	-9.92932
▁moglie	-9.93031
▁castello	-9.9307
▁critica	-9.93095
▁decide	-9.9323
▁personaggi	-9.93247
▁professionista	-9.93275
▁felici	-9.93365
▁dermatite	-9.93394
▁totale	-9.93445
▁zucchero	-9.93496
▁lotta	-9.93516
esecuzione	-9.93554
▁svolta	-9.93632
▁Vaticano	-9.93676
▁abbia	-9.93723
passaporto	-9.93909
▁consultare	-9.9402
▁materiale	-9.94071
allenamento	-9.94092
▁italiani	-9.94138
▁tocco	-9.9414
▁lentamente	-9.94231
▁that	-9.94262
▁@	-9.94263
▁artista	-9.94272
▁forti	-9.94284
▁molteplici	-9.94312
▁disegno	-9.94376
▁desideri	-9.94391
erà	-9.94404
▁potenziale	-9.94461
▁incontrò	-9.9454
▁interessanti	-9.94555
▁conservazione	-9.94599
▁quartiere	-9.94699
▁scadenza	-9.94734
▁registrazione	-9.94785
▁abbastanza	-9.94823
▁video	-9.94851
▁pizza	-9.9488
▁desiderato	-9.94908
▁relative	-9.9504
▁ricetta	-9.95152
▁articoli	-9.95165
▁prevenzione	-9.95246
▁risposte	-9.95337
▁culinarie	-9.95409
▁argomento	-9.95431
Infatti	-9.95447
▁azione	-9.95533
▁grave	-9.95744
▁negativo	-9.95833
▁professore	-9.95848
▁almeno	-9.95861
▁diventando	-9.95937
esistenza	-9.9599
▁forno	-9.96034
armonia	-9.96056
▁progresso	-9.96148
▁corretto	-9.9621
▁aggiornati	-9.96226
ordine	-9.96554
▁sei	-9.96559
▁panorama	-9.96563
▁mentalità	-9.96607
▁ultime	-9.96713
▁spettacolo	-9.96803
▁approfondire	-9.97009
▁rosso	-9.97044
▁incontaminata	-9.9705
▁perdite	-9.97062
▁evitando	-9.97113
▁scienza	-9.97328
▁riflesso	-9.97427
▁produrre	-9.97443
▁sforzi	-9.97446
▁questioni	-9.97449
▁eccessivo	-9.97479
▁John	-9.97626
▁attacchi	-9.9804
▁Nell	-9.98065
▁reagito	-9.98089
▁sede	-9.98139
▁contenere	-9.98234
▁riflette	-9.98343
▁implicazioni	-9.98384
Dopo	-9.98397
▁integrali	-9.9848
▁riduce	-9.98511
▁andato	-9.98526
Nel	-9.98595
▁vini	-9.98719
▁residenti	-9.98723
▁riparazione	-9.98726
▁riuscito	-9.9873
▁consigliabile	-9.98773
▁uova	-9.98891
▁mese	-9.98921
▁notizie	-9.98968
▁dovette	-9.99154
▁esige	-9.99179
▁progettata	-9.9923
▁costanza	-9.99304
▁modelli	-9.99523
▁minuti	-9.99552
▁fantasia	-9.99593
Apache	-9.99604
▁fasi	-9.99632
▁conflitti	-9.99645
altro	-9.99726
▁finestra	-9.99746
▁studiosi	-9.99759
▁accurate	-9.99815
▁ponte	-9.99874
intero	-9.99982
▁consumatori	-9.99987
▁riusciva	-10.0002
▁hotel	-10.0011
▁sani	-10.0019
▁silenzio	-10.002
▁passaggio	-10.003
▁preparato	-10.0038
▁trasmissione	-10.0068
▁svolgere	-10.0068
▁dimostrato	-10.0074
▁commerciale	-10.0084
▁coppia	-10.0088
▁Piazza	-10.0088
▁climatico	-10.0088
▁finanziari	-10.0096
Europa	-10.0099
▁tensione	-10.0134
▁performance	-10.0145
▁resa	-10.0145
▁recensioni	-10.0147
▁precedenti	-10.0147
▁risotto	-10.016
▁studi	-10.0168
▁preparati	-10.0173
▁innovativi	-10.0187
▁gestisce	-10.0188
▁edificio	-10.0194
▁stazione	-10.0197
▁famosi	-10.0205
Ci	-10.021
▁sintomi	-10.0212
▁viaggiatori	-10.0212
aspetto	-10.0214
coprì	-10.0218
▁fibre	-10.0222
▁cure	-10.0223
▁anziano	-10.0224
▁capito	-10.0231
▁scoprendo	-10.0233
▁regno	-10.0237
▁storiche	-10.0242
▁copertura	-10.0247
▁linee	-10.025
▁que	-10.0256
▁incrementare	-10.0259
▁sostenere	-10.0263
▁negativi	-10.0266
▁detto	-10.0273
▁emotiva	-10.0274
▁ansia	-10.0286
▁incontro	-10.0291
▁anzi	-10.0292
▁influisce	-10.0294
▁Michelangelo	-10.0298
▁basat	-10.0315
▁velocemente	-10.033
▁Terre	-10.0338
▁significative	-10.0342
▁incredibile	-10.0343
▁brezza	-10.0348
▁chiesto	-10.0357
▁lezioni	-10.036
▁minimo	-10.0365
▁acidi	-10.0369
▁sicuri	-10.0373
essenza	-10.0373
▁Otwell	-10.0377
▁preferito	-10.0389
▁risolto	-10.0399
▁risparmiare	-10.0401
▁legata	-10.0401
▁sensoriale	-10.0404
▁creano	-10.0405
▁piazza	-10.0407
▁sfumature	-10.041
▁solari	-10.0416
▁racconta	-10.0416
▁specifico	-10.0418
▁coltivare	-10.0426
▁Vaticani	-10.0431
▁parla	-10.0435
▁marito	-10.0435
▁altrui	-10.0458
▁Aria	-10.0462
▁offerti	-10.048
▁lunghe	-10.048
▁Esteri	-10.048
▁confortevole	-10.0481
▁proposta	-10.0487
▁disposti	-10.049
▁New	-10.0495
integrazione	-10.0497
▁lezione	-10.0504
Da	-10.0522
▁ampia	-10.0523
▁richiedeva	-10.0525
▁N	-10.0536
▁sorriso	-10.0543
▁vendite	-10.0549
▁coinvolge	-10.0551
▁vuol	-10.0575
▁comprende	-10.0578
▁sentono	-10.0588
▁perseveranza	-10.0589
▁trasparente	-10.0595
▁responsabili	-10.06
▁serra	-10.0612
▁aspettare	-10.0625
▁praticare	-10.0625
▁legno	-10.0626
approccio	-10.0631
▁letteratura	-10.0631
▁diritto	-10.0641
▁respira	-10.0655
▁deliziosi	-10.0663
▁esecuzione	-10.0665
▁voli	-10.0667
▁tempio	-10.0673
▁salsa	-10.0673
▁rafforzare	-10.0674
▁esercizi	-10.0689
▁cambio	-10.0691
▁turistica	-10.0695
▁situato	-10.07
▁ricercatori	-10.0721
▁gustare	-10.073
▁esterne	-10.0731
▁ritrovare	-10.0735
▁causato	-10.0736
▁tipi	-10.0737
▁reputazione	-10.0747
▁sognato	-10.075
▁testi	-10.0757
▁basso	-10.0762
▁apprezzato	-10.0764
▁contattare	-10.077
▁Angular	-10.0778
▁portata	-10.079
▁hosting	-10.0795
▁informatico	-10.0797
Spring	-10.0797
▁lavori	-10.08
▁permetteva	-10.0806
▁negozi	-10.0839
▁elevate	-10.0841
▁pianta	-10.0844
ottimizzazione	-10.0844
▁Como	-10.0851
annotazione	-10.0863
▁sviluppato	-10.0864
▁algoritmi	-10.0869
▁ispirazione	-10.088
▁biblioteca	-10.0883
▁guidare	-10.0885
▁apportare	-10.0888
▁novità	-10.0895
▁consumare	-10.0899
▁giocato	-10.0905
▁sceglie	-10.0906
▁digitali	-10.0909
▁installazione	-10.091
▁recente	-10.0918
avanguardia	-10.092
▁cima	-10.0923
Ogn	-10.0928
▁previsto	-10.094
▁abiti	-10.0953
▁inglese	-10.0959
▁lettore	-10.0963
▁sviluppa	-10.0964
▁universale	-10.0972
▁geografica	-10.0975
▁transazioni	-10.0982
▁moduli	-10.0986
▁curiosità	-10.0998
▁serena	-10.1002
▁basa	-10.101
▁giochi	-10.1014
▁varie	-10.102
▁scritto	-10.1037
▁qui	-10.1041
▁tranquilla	-10.1048
▁diabete	-10.1055
▁pena	-10.1055
▁modifica	-10.1057
eredità	-10.1063
▁russo	-10.1066
ostante	-10.1069
▁elettrica	-10.1071
▁dose	-10.1072
▁favorire	-10.1073
▁concorrenza	-10.108
▁mobili	-10.1087
▁rappresentare	-10.1093
ando	-10.1094
▁Ad	-10.1098
▁precedente	-10.1107
▁milioni	-10.1112
▁peculiarità	-10.1129
▁offerto	-10.1131
▁canto	-10.1139
Agenzia	-10.1144
▁riposo	-10.1146
▁rilevanti	-10.1146
▁aggiornamento	-10.1159
▁esempi	-10.1161
▁zone	-10.1166
▁elaborare	-10.1169
▁vive	-10.1169
▁meraviglia	-10.117
▁duramente	-10.1187
▁incontrano	-10.1187
▁permettere	-10.1195
ambasciata	-10.1196
▁ricchi	-10.1215
Windows	-10.1219
▁piace	-10.123
SERV	-10.1232
▁caratteristica	-10.1232
▁fretta	-10.1234
▁autentico	-10.1235
forniscono	-10.1244
▁HTTP	-10.1248
▁estive	-10.1259
▁attendibili	-10.1262
▁dettagliato	-10.1274
▁straordinaria	-10.1278
▁flusso	-10.1284
▁cartella	-10.1286
▁aereo	-10.1293
▁prezioso	-10.1296
amico	-10.1324
▁strette	-10.1334
▁intervento	-10.1341
▁esercizio	-10.1344
▁corrente	-10.1346
▁occasione	-10.1347
▁Ministero	-10.1351
▁tavolo	-10.1351
acquisto	-10.1365
▁efficacia	-10.1367
▁visualizzare	-10.1375
▁fede	-10.1389
▁leggera	-10.1391
▁special	-10.1393
▁Uffizi	-10.14
▁fisiche	-10.1402
▁coppa	-10.1402
▁commerciali	-10.1416
▁fatti	-10.1428
▁vecchia	-10.1433
▁provenient	-10.1434
▁età	-10.1438
▁difesa	-10.1442
▁approfondito	-10.1448
▁intraprendere	-10.1457
▁raccolti	-10.1473
▁cardiovascolari	-10.1476
▁cruciali	-10.1478
▁versatile	-10.1487
▁cottura	-10.1492
▁eredità	-10.1503
▁critici	-10.1508
▁passeggeri	-10.151
▁traduzione	-10.151
▁ricerche	-10.1515
▁critico	-10.1529
rsi	-10.1531
▁sola	-10.1539
▁arrivato	-10.1541
▁sostanza	-10.1552
▁tecnologica	-10.1566
▁trasformare	-10.1566
▁panoramica	-10.1567
▁colpito	-10.1574
▁profondamente	-10.161
▁variegata	-10.1613
▁amanti	-10.1613
▁tranquillo	-10.1614
▁destino	-10.162
▁adatti	-10.1622
▁miglior	-10.1627
ed	-10.1633
▁specialità	-10.1636
▁gioca	-10.164
▁telefono	-10.1648
▁tè	-10.1648
▁DNS	-10.1653
▁reciproca	-10.1658
▁nascosto	-10.1661
▁so	-10.1665
▁reazione	-10.1673
▁Dur	-10.1675
va	-10.1681
▁strettamente	-10.1682
▁presidente	-10.1683
▁fatta	-10.1703
▁investimento	-10.1718
endo	-10.1734
▁compagnie	-10.174
▁spalle	-10.1741
▁creò	-10.1754
▁scambio	-10.176
▁tre	-10.177
▁ripristinare	-10.1771
▁spettatori	-10.1775
▁messaggi	-10.1777
▁distingue	-10.178
▁viveva	-10.1782
▁spinge	-10.1789
▁argomenti	-10.1806
▁tenga	-10.1806
▁soggetto	-10.1821
▁raggi	-10.1858
▁applicare	-10.1862
▁attira	-10.1862
▁tessuti	-10.1876
▁rimane	-10.1882
▁equilibrato	-10.1897
▁davvero	-10.1899
▁aiutarti	-10.19
▁continuo	-10.1906
▁tavola	-10.1911
indagine	-10.1916
▁applicazione	-10.1919
▁freschezza	-10.1946
▁direttamente	-10.1964
▁cerimonia	-10.1969
▁raccontano	-10.197
▁piscina	-10.1973
▁positiva	-10.1978
▁sorgente	-10.1983
▁costrett	-10.1995
▁sensazioni	-10.1997
▁riparare	-10.1997
▁acquisto	-10.2004
▁uso	-10.2004
▁proprietario	-10.2004
▁propone	-10.202
▁leggero	-10.2029
▁ospita	-10.2031
▁vide	-10.2032
▁possan	-10.2032
▁presentano	-10.2034
▁minimizzar	-10.2037
▁infrastrutture	-10.2038
▁signora	-10.2045
▁condurre	-10.2046
▁(	-10.2052
▁Questi	-10.2056
▁contributo	-10.2062
▁miele	-10.2072
▁cinque	-10.2086
▁origini	-10.2112
▁rapide	-10.2113
▁desiderati	-10.2115
Essere	-10.2121
▁richiesti	-10.2128
▁migliorato	-10.213
▁venire	-10.2135
▁investimenti	-10.214
▁aggiornate	-10.214
▁comportamenti	-10.2152
inverno	-10.2159
▁aggiunto	-10.2162
▁influenze	-10.2163
▁seguendo	-10.2167
▁optare	-10.2167
▁salutare	-10.2178
▁frutto	-10.2178
▁partner	-10.2179
▁libera	-10.2179
evoluzione	-10.218
▁noti	-10.2183
▁accettare	-10.219
▁create	-10.219
▁trovò	-10.2193
unione	-10.2197
▁musicale	-10.2201
▁conferma	-10.2209
▁CMS	-10.2209
▁giustizia	-10.2213
▁essa	-10.2224
▁piuttosto	-10.2224
▁contribuisce	-10.2232
▁iniziale	-10.2233
▁dipendenza	-10.2243
▁lavorano	-10.2245
▁piani	-10.2251
▁definisce	-10.2251
▁standard	-10.2254
▁positive	-10.2273
▁reagire	-10.2275
implementazione	-10.2279
▁superato	-10.2283
▁carbonara	-10.2292
▁riserva	-10.2296
▁finanziario	-10.2299
▁mistero	-10.2305
▁rivela	-10.2306
▁scopi	-10.2307
▁insegnato	-10.2309
▁acquisire	-10.2312
l	-10.2313
▁belle	-10.2319
▁ampio	-10.2319
▁lettera	-10.2325
▁aggiuntivi	-10.2331
▁produce	-10.2333
incontro	-10.234
▁energetica	-10.2341
▁folla	-10.2349
▁cucinare	-10.2354
▁fedeltà	-10.236
▁delizioso	-10.2362
▁ultima	-10.2365
istruzione	-10.2369
▁regolari	-10.2383
▁realmente	-10.2391
▁adulti	-10.2392
▁crescente	-10.2392
▁Decise	-10.2401
▁fauna	-10.2413
Linux	-10.2413
▁conta	-10.2414
espressione	-10.2415
▁bisogni	-10.2423
Hann	-10.2438
▁offriva	-10.2443
▁prossima	-10.2461
▁pensa	-10.2469
commerce	-10.2474
Nell	-10.2475
▁carattere	-10.248
▁configura	-10.249
▁sembrare	-10.2493
▁pacchetto	-10.2502
▁neve	-10.2509
▁modalità	-10.251
▁civile	-10.2512
▁confusione	-10.2513
▁fondono	-10.2514
▁disciplina	-10.2515
▁apprendere	-10.2518
▁Rosa	-10.252
▁ognuno	-10.2523
▁spesa	-10.2525
▁dominio	-10.2532
▁rendendol	-10.2539
▁rinunciare	-10.2544
▁ritorno	-10.2549
▁minerali	-10.2551
onostante	-10.2553
▁manifesta	-10.2553
▁sostituire	-10.2556
impegno	-10.2565
▁passaggi	-10.257
▁yoga	-10.2573
▁giuste	-10.2576
▁portò	-10.2579
▁invece	-10.258
▁assaggiare	-10.2582
▁soggetti	-10.2583
▁giro	-10.2583
aeroporto	-10.2585
errore	-10.2588
▁mura	-10.2595
▁includere	-10.2597
▁settori	-10.2608
▁opzione	-10.2611
▁meccanico	-10.2619
▁Musei	-10.2621
▁potrem	-10.2627
▁determinata	-10.2629
▁completare	-10.2634
bbiamo	-10.2637
▁chiunque	-10.2643
▁Cinque	-10.2649
▁incidenti	-10.2651
▁traccia	-10.2655
▁mattino	-10.2676
▁interagire	-10.2685
▁chiamato	-10.2686
▁dibattito	-10.2692
▁costruito	-10.2702
▁coscienza	-10.2708
▁convinto	-10.2709
▁dimostrare	-10.2714
▁interfaccia	-10.2726
▁scalabili	-10.2727
▁bilanciata	-10.2729
▁mantenendo	-10.2736
▁her	-10.2737
▁esame	-10.2743
▁familiare	-10.2749
▁sangue	-10.276
▁testa	-10.277
▁restare	-10.2774
▁prepara	-10.2785
▁metabolismo	-10.2785
▁lettori	-10.2794
▁intensa	-10.2796
▁depressione	-10.2799
▁compleanno	-10.2805
▁porte	-10.2814
▁Lo	-10.2815
▁intervenire	-10.2818
▁fermarsi	-10.2824
▁bambina	-10.283
Lena	-10.2834
▁luci	-10.2836
▁rivedere	-10.2838
▁dinamico	-10.2839
▁tecnologico	-10.2839
▁parametri	-10.2841
PORT	-10.2848
▁infatti	-10.2849
▁duratura	-10.2852
▁HTML	-10.2862
▁pagamenti	-10.2865
▁ragioni	-10.2867
▁erbe	-10.287
▁rappresentava	-10.2874
▁decidere	-10.2877
SO	-10.2878
▁Ora	-10.2885
▁attrezzature	-10.289
▁copia	-10.2891
▁mix	-10.2895
incidente	-10.2903
▁risiede	-10.2904
▁informata	-10.2919
▁emotivo	-10.2922
età	-10.2925
▁aeree	-10.2927
▁Mosca	-10.2927
▁spiegare	-10.293
▁circondata	-10.293
offerta	-10.2938
▁Ogn	-10.2943
▁estiva	-10.2944
Firenze	-10.2945
accordo	-10.2947
▁divertente	-10.2949
▁esterno	-10.2953
▁ragazzi	-10.2954
▁voglia	-10.2955
▁precisi	-10.2955
▁duraturo	-10.2956
▁sentivo	-10.2957
▁valuta	-10.2958
▁mette	-10.2962
▁esattamente	-10.2969
▁dimenticato	-10.2969
▁farsi	-10.297
▁accessibili	-10.2971
▁diede	-10.2972
▁famose	-10.2984
▁allora	-10.2993
▁rinascita	-10.2994
▁coinvolto	-10.2997
▁descritta	-10.3003
▁eseguito	-10.3006
▁coerenza	-10.3008
▁esistenti	-10.3011
RIS	-10.302
▁mercati	-10.302
▁realizzato	-10.3021
▁gara	-10.3027
integrità	-10.3031
▁significativa	-10.3032
▁potenziali	-10.3032
▁bella	-10.3034
▁pensato	-10.3047
▁sensibilità	-10.3048
▁spirito	-10.3055
T	-10.3068
▁presentato	-10.3071
▁elaborazione	-10.3076
▁chiama	-10.3096
▁limitare	-10.3099
▁creazioni	-10.31
intervento	-10.3104
▁capelli	-10.3108
assicurare	-10.3116
▁linguistiche	-10.3121
▁finanze	-10.3121
▁tecnologiche	-10.3121
▁macchine	-10.3122
▁cloud	-10.3122
▁debito	-10.3122
indirizzo	-10.3126
▁inserire	-10.3126
▁profondità	-10.3127
▁distribuzione	-10.3136
▁desiderano	-10.3145
▁offerta	-10.3145
▁leggi	-10.3178
Quest	-10.3186
▁fatica	-10.32
▁pomodoro	-10.3202
▁limitazioni	-10.3202
▁cascate	-10.3204
▁alcun	-10.3208
▁Natale	-10.3215
▁monitoraggio	-10.3222
▁causando	-10.3236
▁meraviglie	-10.3252
▁diretta	-10.3253
▁dubbi	-10.3263
▁principi	-10.3265
▁grandezza	-10.3271
▁origine	-10.3276
▁ricorrere	-10.3284
▁Museo	-10.3284
▁circa	-10.3286
▁necessitano	-10.3288
▁svolto	-10.3291
▁bicicletta	-10.33
▁progressi	-10.3301
▁organizzazioni	-10.3304
industria	-10.3318
▁arrivò	-10.3318
▁barriere	-10.3318
▁prende	-10.333
▁danno	-10.3335
▁ucraina	-10.3339
▁differenti	-10.3347
▁piacere	-10.3351
▁cervello	-10.3352
▁viva	-10.3362
▁succedendo	-10.3369
▁inutili	-10.3377
▁manuale	-10.338
▁apprezzata	-10.3382
▁cinema	-10.3385
▁spezie	-10.3386
▁requisito	-10.3387
▁freddo	-10.3387
importante	-10.339
▁eccellente	-10.3392
▁preoccupazione	-10.3396
▁escursioni	-10.3398
▁quotidiano	-10.3406
▁nave	-10.3408
▁camera	-10.3421
albero	-10.3421
▁adesso	-10.3423
▁complessiva	-10.3429
▁lottare	-10.3437
▁crema	-10.346
▁ama	-10.3463
▁mediche	-10.3463
▁incontri	-10.3465
▁riesco	-10.3473
▁lavoratori	-10.3478
▁celebrare	-10.348
▁missione	-10.3481
▁vivo	-10.3484
▁agio	-10.3486
▁definizione	-10.349
▁festival	-10.3494
▁dettagliate	-10.3499
▁entrate	-10.3502
▁carica	-10.3505
▁numerosi	-10.3513
▁fermato	-10.3514
▁versioni	-10.352
▁povertà	-10.3524
▁ulteriormente	-10.3531
▁borghi	-10.3531
▁massa	-10.3539
▁quadro	-10.3539
▁monumento	-10.3539
▁burocrazia	-10.3552
▁appagante	-10.3553
▁transizione	-10.3567
▁varia	-10.3575
antica	-10.3579
▁bancario	-10.3581
ultima	-10.3584
▁Duomo	-10.3587
▁ciclo	-10.3595
▁riuscire	-10.3597
▁basilico	-10.3601
▁immediatamente	-10.3609
▁analizzando	-10.3617
▁basato	-10.3628
▁with	-10.3632
▁interazioni	-10.3637
▁chiari	-10.3645
▁livelli	-10.3646
colazione	-10.3647
▁determinare	-10.3653
▁medici	-10.3654
▁aperti	-10.366
▁climatiche	-10.3672
▁esplorando	-10.3673
▁minaccia	-10.3677
▁individuale	-10.3679
▁punta	-10.3683
▁condiviso	-10.3689
▁mezzi	-10.3691
▁quasi	-10.3694
ANS	-10.3699
▁pubbliche	-10.3702
▁artistiche	-10.3707
▁fitness	-10.3707
▁fuoco	-10.3707
TR	-10.3714
▁informatiche	-10.3716
▁vivono	-10.372
▁battaglia	-10.3722
▁rotta	-10.3727
▁forse	-10.373
▁lusso	-10.3731
▁ingrediente	-10.3733
▁tesoro	-10.3743
▁danneggiare	-10.3745
▁preziosi	-10.3747
▁suggestiva	-10.3751
▁ieri	-10.3758
▁infanzia	-10.3761
▁confini	-10.3766
▁olistico	-10.3779
▁italiane	-10.3785
intera	-10.3786
▁zuccheri	-10.3787
▁turismo	-10.3787
▁simili	-10.3801
esito	-10.3805
▁terre	-10.3808
▁bilanciare	-10.3814
▁innovazioni	-10.3816
▁suoni	-10.3823
▁discussioni	-10.3831
▁accompagna	-10.384
▁progettare	-10.3845
▁riprendere	-10.3847
▁motori	-10.3855
▁conflitto	-10.3858
▁fenomeni	-10.3858
▁conosciuta	-10.386
app	-10.3862
▁stimolante	-10.3866
▁emergere	-10.387
▁gastronomica	-10.3873
▁accurata	-10.3873
▁E	-10.388
▁frasi	-10.3882
▁stanchezza	-10.3894
▁suggerimenti	-10.3894
▁resto	-10.3896
▁prendendo	-10.3903
▁Leonardo	-10.3908
▁descritto	-10.391
interazione	-10.3912
DDR	-10.3913
▁insegnò	-10.3925
▁note	-10.3927
▁sezione	-10.3928
▁capitale	-10.3932
▁dottor	-10.3934
▁spiritualità	-10.3937
▁layout	-10.3937
ranno	-10.3939
▁eterna	-10.3939
▁bianco	-10.3945
▁sala	-10.3951
▁certo	-10.3957
▁violenza	-10.3959
▁indossare	-10.396
▁esposte	-10.3964
▁seborroica	-10.3966
▁commercio	-10.397
▁composto	-10.3971
▁bosco	-10.3976
▁prime	-10.3978
▁completato	-10.3979
▁bello	-10.3979
▁osservare	-10.398
ESS	-10.398
Impero	-10.3981
▁costituisc	-10.3988
▁visualizzazione	-10.3989
▁legami	-10.4005
▁veicoli	-10.4005
▁desidera	-10.4008
▁eliminare	-10.4011
▁The	-10.4015
▁giocatore	-10.4019
oiché	-10.4032
▁chiamata	-10.4037
programmazione	-10.4038
▁studiato	-10.4044
Russia	-10.4044
impiego	-10.4049
▁economici	-10.4058
▁Nazionale	-10.4062
▁ultimo	-10.4069
▁client	-10.4073
▁consolato	-10.4076
▁proseguire	-10.4077
▁merci	-10.4078
▁carico	-10.408
▁torta	-10.4086
▁atto	-10.4087
▁cambiando	-10.409
Al	-10.409
▁Vecchio	-10.4106
▁fornendo	-10.4114
▁descrive	-10.4119
oggetto	-10.4126
▁finire	-10.4135
▁sindaco	-10.4135
▁massimizzar	-10.4155
▁esiste	-10.4174
▁piazze	-10.4174
▁mani	-10.4181
▁ascoltando	-10.4187
▁conveniente	-10.4197
▁prese	-10.4199
▁scelse	-10.4199
▁frutti	-10.42
▁pomeriggio	-10.4203
▁velocizzare	-10.4204
▁entrambe	-10.4205
▁basi	-10.4205
▁for	-10.4222
▁perde	-10.4228
▁reazioni	-10.423
▁MVC	-10.4231
▁10	-10.4242
▁marina	-10.425
▁pittura	-10.4253
▁atteggiamento	-10.4254
▁anziani	-10.4264
▁cookie	-10.4276
▁conseguire	-10.4276
▁ricorda	-10.4277
▁villa	-10.4278
▁razionale	-10.4294
▁sostiene	-10.43
▁elettronici	-10.4309
▁Malta	-10.4316
▁Max	-10.4318
▁dura	-10.4322
▁innovare	-10.4341
▁distanza	-10.4343
▁ufficio	-10.4349
▁semplicemente	-10.4352
▁Reale	-10.4362
▁potrest	-10.4362
▁magico	-10.4363
▁descrizione	-10.4369
▁biglietti	-10.4369
▁incertezze	-10.437
▁bassa	-10.4371
▁produttivo	-10.4371
▁tasse	-10.4373
▁cane	-10.4374
▁circondano	-10.4376
▁raccontava	-10.4381
▁aiutò	-10.4383
▁motivi	-10.4406
▁prestare	-10.4411
▁coinvolgere	-10.4411
▁dimostrando	-10.4428
▁entrambi	-10.443
▁implica	-10.443
▁europeo	-10.4448
▁competenza	-10.4454
▁sostituzione	-10.446
▁cache	-10.4466
▁MySQL	-10.4466
▁eleganza	-10.4478
▁reagisce	-10.4481
▁vanta	-10.4483
▁provato	-10.449
▁recuperare	-10.4491
▁Europa	-10.4492
▁romani	-10.4494
▁sorella	-10.4514
ì	-10.4525
▁gusti	-10.4525
▁delicato	-10.4525
▁tener	-10.4526
▁organizzato	-10.4529
▁creativo	-10.4533
▁passi	-10.4535
▁sapevo	-10.4539
▁turistiche	-10.455
▁consigliò	-10.4552
▁rappresentato	-10.4559
▁migliorano	-10.4559
Colosseo	-10.4563
▁debolezza	-10.4568
▁Akira	-10.4573
▁collaterali	-10.4575
▁trasportare	-10.4576
▁precise	-10.4582
▁promozione	-10.4584
▁dedicato	-10.4585
▁dovrebbero	-10.459
▁omega	-10.4591
▁paradiso	-10.4598
▁formaggio	-10.4601
▁gentile	-10.4606
▁vuoto	-10.4607
▁gladiatori	-10.4609
▁avventure	-10.4609
▁fiato	-10.461
▁riconoscimento	-10.4614
▁gruppi	-10.4616
▁albero	-10.4621
▁foreste	-10.4625
▁giocano	-10.4628
▁cadere	-10.4636
▁caos	-10.4637
▁stanco	-10.4638
▁rispettoso	-10.4651
▁attivo	-10.4652
▁debolezze	-10.4654
▁Rossi	-10.4658
▁Città	-10.4661
▁finestre	-10.4663
amica	-10.4666
▁globali	-10.4667
▁cercava	-10.4674
▁rapporti	-10.4677
▁cellule	-10.4685
▁carburante	-10.4693
Ho	-10.4694
▁pesci	-10.47
▁rispose	-10.4701
▁genera	-10.4707
▁vittime	-10.4709
▁fortuna	-10.4709
▁Google	-10.4737
▁vi	-10.4739
oasi	-10.4739
▁compromesso	-10.474
▁difendere	-10.4745
▁politici	-10.4745
▁invernale	-10.4748
▁spera	-10.4753
Quanti	-10.4754
mmo	-10.4756
▁limone	-10.4758
▁artistico	-10.4764
▁pezzo	-10.4771
▁toscana	-10.4772
▁credito	-10.4774
▁professionali	-10.4775
▁lanciare	-10.478
▁notizia	-10.4787
▁favorisc	-10.4788
▁pesto	-10.4788
▁rilascio	-10.479
▁specializzati	-10.4797
▁affrontato	-10.4799
▁raggiungimento	-10.4802
esame	-10.4804
▁sereno	-10.4806
ingresso	-10.4809
▁partite	-10.4809
▁tenendo	-10.481
▁yogurt	-10.4814
▁raccolto	-10.4814
▁mondi	-10.4814
▁entra	-10.4816
▁spettacolare	-10.4819
▁ricevette	-10.482
▁fiore	-10.4821
▁atleti	-10.4824
▁ligure	-10.4827
▁transazione	-10.4828
▁Secondo	-10.4833
▁conquistare	-10.4858
▁connessioni	-10.4861
ssero	-10.4865
▁contribuiscono	-10.4867
▁Europea	-10.4868
▁pasti	-10.4869
▁flessibili	-10.4876
▁scalabile	-10.4876
▁vite	-10.4883
▁sì	-10.4885
▁respirare	-10.489
▁calcolo	-10.4891
▁maestro	-10.4891
▁React	-10.4892
argomento	-10.4896
▁salvare	-10.4909
▁Chi	-10.491
▁ispirare	-10.4915
▁riuscita	-10.4917
▁specializzato	-10.4924
▁dipinto	-10.4925
▁figura	-10.4938
Java	-10.4942
ertanto	-10.4942
▁trasferimento	-10.4946
▁protagonisti	-10.4949
▁deliziosa	-10.4953
▁sottostante	-10.4955
▁Solo	-10.4955
individuo	-10.496
▁conservare	-10.4962
albergo	-10.4963
▁poche	-10.4966
▁autostima	-10.497
▁compressione	-10.4971
▁controlli	-10.4972
▁dedicare	-10.4981
▁fermezza	-10.4986
▁compagno	-10.4989
▁lesioni	-10.4993
▁ispirato	-10.4995
▁concentra	-10.5
▁investitori	-10.5003
▁solide	-10.501
▁composizione	-10.5015
▁camminava	-10.503
▁stampa	-10.5035
▁Francia	-10.5043
▁località	-10.5045
▁collina	-10.505
▁interfacce	-10.5052
▁moderni	-10.5065
▁vendita	-10.5071
▁fluida	-10.5075
▁sopravvivere	-10.5076
▁aspetta	-10.5083
▁rateizzazione	-10.5084
▁archiviazione	-10.5087
▁testare	-10.509
▁sicure	-10.5091
obbiamo	-10.5106
▁sorpresa	-10.511
▁perfezione	-10.5111
▁Angeles	-10.5116
▁ovunque	-10.5117
▁inizio	-10.5122
▁secca	-10.5126
▁villaggi	-10.5129
amo	-10.5131
▁consentire	-10.5137
▁professionalità	-10.5141
▁teatro	-10.5142
▁lento	-10.515
▁sculture	-10.5151
▁tutelare	-10.5156
▁startup	-10.5163
▁lista	-10.5163
▁cari	-10.5164
▁imprescindibile	-10.5166
▁vestiti	-10.5167
▁ricaricare	-10.5168
▁azzurro	-10.518
▁popolari	-10.5193
▁pulire	-10.5197
▁rapidità	-10.5198
▁pareti	-10.5208
▁intelligente	-10.521
▁sintassi	-10.5223
▁iniziar	-10.5225
▁profilo	-10.5232
▁comprare	-10.5235
▁attendere	-10.5237
▁membro	-10.5241
▁pericoli	-10.5243
▁ordine	-10.5245
▁complicazioni	-10.5248
insieme	-10.5249
▁comandi	-10.525
▁vulnerabilità	-10.5256
▁restrizioni	-10.5257
▁attorno	-10.5257
▁vostra	-10.527
▁tesori	-10.5274
▁trascurare	-10.5275
▁appropriato	-10.5283
▁arricchire	-10.5284
▁circondato	-10.5293
ossiamo	-10.5294
▁modulare	-10.5301
▁messa	-10.5301
▁accadere	-10.5302
▁specificato	-10.5305
▁quiete	-10.5316
▁marine	-10.532
▁sanitario	-10.5321
▁logico	-10.5321
obesità	-10.5322
▁condizionare	-10.5322
▁Commissione	-10.5325
▁Dove	-10.5343
▁fedeli	-10.5344
▁segnato	-10.5346
▁avviare	-10.5363
▁patologie	-10.5366
▁conferenza	-10.5366
▁concerto	-10.5369
▁guidato	-10.5369
▁incidente	-10.5373
▁davanti	-10.5375
▁pezzi	-10.5383
▁dotato	-10.5392
▁riescono	-10.5404
▁avviene	-10.5407
▁greco	-10.5407
orizzonte	-10.5407
▁composta	-10.5413
▁suolo	-10.5416
▁aumentato	-10.5416
▁moderno	-10.543
▁credere	-10.5432
▁sostengono	-10.5432
▁adatte	-10.5435
▁alimento	-10.5441
▁scaricare	-10.5444
▁fronteggiare	-10.545
▁invernali	-10.5467
▁archeologici	-10.5467
▁sposa	-10.5482
▁meccanismo	-10.5483
▁muscolare	-10.5484
▁Boston	-10.5487
▁spettacoli	-10.5493
▁organizzazione	-10.5499
▁diffusione	-10.5509
▁attraente	-10.551
▁mostrare	-10.5511
▁convinzioni	-10.5518
▁assicura	-10.5525
▁facoltà	-10.5534
▁desiderio	-10.5534
▁circostanze	-10.5535
▁calorie	-10.5535
▁superiore	-10.5543
▁feedback	-10.5551
▁email	-10.5558
▁contrastare	-10.5561
▁rinnovabile	-10.5578
▁autorizzati	-10.5579
▁trattati	-10.5581
▁divertimento	-10.5586
▁chiarire	-10.5591
Mi	-10.5603
Taylor	-10.561
▁facili	-10.5628
▁entusiasta	-10.563
▁aggiuntive	-10.5632
▁distinguere	-10.5638
▁cascata	-10.5639
▁risulta	-10.5639
▁riso	-10.5643
Mary	-10.5649
▁servita	-10.5657
▁latte	-10.5661
▁Creek	-10.5662
▁inviare	-10.5663
▁conversazione	-10.5664
▁sportiva	-10.5664
▁chiede	-10.5674
▁gatto	-10.5674
▁cogliere	-10.5679
▁carenza	-10.568
▁riguardo	-10.5681
▁3	-10.5682
▁Venezia	-10.5686
▁automatica	-10.5689
▁compreso	-10.5692
▁temperature	-10.5701
▁diminuire	-10.5704
arrivo	-10.5706
▁facevano	-10.571
▁meteorologiche	-10.5715
▁architettonica	-10.5717
▁nascosta	-10.5719
incertezza	-10.5725
▁funzionale	-10.5732
▁aria	-10.5735
▁password	-10.5741
▁cambiò	-10.5742
▁Molti	-10.5743
ultimo	-10.5744
▁installato	-10.5759
▁co	-10.576
▁ricostruire	-10.576
▁tramite	-10.5767
▁rilassata	-10.5769
▁costretto	-10.5773
adeguata	-10.5785
▁recenti	-10.5787
▁riposare	-10.5787
▁vinto	-10.579
▁eco	-10.5793
▁immagine	-10.5799
▁sentiero	-10.5803
▁spinto	-10.5812
niziò	-10.5816
▁cattedrale	-10.582
assunzione	-10.5833
elaborazione	-10.5833
▁appropriata	-10.5834
▁revisione	-10.5839
▁Infine	-10.584
▁vincente	-10.5849
▁Romano	-10.5853
▁condividono	-10.5855
▁miglioramenti	-10.5857
▁colorati	-10.5857
▁obbligatorio	-10.5858
▁regalo	-10.5859
▁Genova	-10.5862
▁terapia	-10.5865
▁impegni	-10.5868
▁servito	-10.5871
▁creative	-10.5874
▁venivano	-10.5875
n	-10.589
▁riforma	-10.5894
▁considerati	-10.5897
▁capolavoro	-10.5899
▁incertezza	-10.5915
▁Sper	-10.5923
▁stabilito	-10.5924
▁interni	-10.5925
▁prudenza	-10.5926
▁luminosa	-10.5928
▁romanzo	-10.5935
▁religione	-10.5935
▁domani	-10.5936
▁stradale	-10.5938
▁rilevante	-10.5945
▁directory	-10.5952
▁pepe	-10.5953
▁catena	-10.5954
Alex	-10.596
▁newsletter	-10.5964
▁percorsi	-10.5965
▁mettendo	-10.5967
▁sentieri	-10.5974
▁diffuse	-10.5979
▁plasmato	-10.598
▁grafica	-10.5991
▁regola	-10.5995
▁query	-10.5997
▁risale	-10.6002
▁sto	-10.6004
▁discorso	-10.6005
rendersi	-10.6006
▁serviva	-10.601
▁nord	-10.6013
▁bevande	-10.6015
▁fornito	-10.6025
▁accolto	-10.6026
▁pienamente	-10.6031
▁appartenenza	-10.6031
▁destinatario	-10.6047
▁resi	-10.6047
▁account	-10.6049
▁compagni	-10.6054
▁nutrizionale	-10.6062
▁elegante	-10.6062
origine	-10.6075
▁extra	-10.6082
▁collega	-10.6092
▁accessi	-10.6094
▁tornò	-10.6106
▁emozione	-10.6109
▁adeguata	-10.6111
▁presa	-10.6115
▁stanca	-10.6125
▁comprese	-10.6126
▁matematica	-10.6129
▁chiare	-10.6132
▁manzo	-10.6133
▁soddisfatto	-10.6133
▁tornato	-10.6134
▁Paese	-10.615
▁indicazioni	-10.6151
▁maniera	-10.6152
▁solido	-10.6154
▁24	-10.6163
▁chiavi	-10.6168
▁lavorative	-10.6174
▁verrà	-10.6179
▁protocollo	-10.6186
▁Willow	-10.6187
-3	-10.6188
▁scopre	-10.6189
▁sensi	-10.6197
▁conversione	-10.62
▁probabilità	-10.6204
▁coste	-10.6204
▁informati	-10.6206
▁elevato	-10.6209
▁httpd	-10.6213
▁trarre	-10.6215
▁tipico	-10.6218
▁intense	-10.6222
▁vede	-10.6224
▁configurato	-10.6239
▁confronti	-10.6239
▁accompagnato	-10.6246
▁solito	-10.6247
▁marchio	-10.6254
▁creati	-10.6254
▁americana	-10.6256
▁affronta	-10.6258
▁disco	-10.6266
educazione	-10.6271
▁concrete	-10.6271
▁cautela	-10.6273
▁Lily	-10.6275
▁reti	-10.6276
▁relatività	-10.6277
▁incluso	-10.6289
adozione	-10.629
▁conosciuto	-10.629
▁contatti	-10.6296
▁competenti	-10.6296
▁scadenze	-10.6298
▁preziose	-10.6302
▁legale	-10.6309
▁dimensione	-10.6309
▁consegnare	-10.631
▁Parlamento	-10.6314
▁rallentare	-10.6316
▁sensibile	-10.6324
▁gratitudine	-10.6333
▁imprevedibili	-10.6342
▁consulente	-10.6343
▁attuali	-10.6345
▁pubblicazione	-10.6348
▁inestimabile	-10.6353
▁chiesa	-10.6356
▁iniziative	-10.6361
▁voluto	-10.6361
▁incantevole	-10.6363
▁beneficiar	-10.6364
entirsi	-10.6364
▁Vinci	-10.6368
▁goderm	-10.637
▁nascoste	-10.6378
▁manifestazioni	-10.638
▁autori	-10.6381
▁teorie	-10.6383
▁trattare	-10.6388
esplosione	-10.6389
▁chimica	-10.639
infanzia	-10.639
▁semi	-10.6393
▁convinzione	-10.6399
▁integrare	-10.64
▁pericolose	-10.6403
▁urbana	-10.6409
▁sprechi	-10.641
▁gratificante	-10.6417
▁reciproco	-10.6417
▁originali	-10.6419
▁durature	-10.6422
OU	-10.6423
▁recupero	-10.6435
▁facilitare	-10.6451
Avere	-10.6457
/	-10.6461
▁interna	-10.6468
▁stima	-10.6472
rappresentazione	-10.6484
▁dinamica	-10.6485
▁migliai	-10.6486
▁passeggiare	-10.6494
▁funzionano	-10.6495
▁maestri	-10.6497
Alcuni	-10.6506
unità	-10.6508
▁pollo	-10.6508
▁nascondere	-10.651
TY	-10.6527
▁Ponte	-10.6527
▁posta	-10.6529
▁leggenda	-10.6531
▁strategico	-10.6531
▁Alessandro	-10.6534
▁B	-10.6534
▁considera	-10.6542
▁interruzioni	-10.6557
▁governi	-10.6558
▁risorsa	-10.6559
▁adeguato	-10.6561
▁collettiva	-10.6566
▁muoversi	-10.6576
▁regina	-10.6577
▁avversità	-10.6586
▁essi	-10.6613
▁ottimo	-10.6614
Python	-10.6616
▁fama	-10.662
▁filo	-10.6624
▁cristalline	-10.6636
▁approfondite	-10.6638
▁fraintendimenti	-10.6642
▁fallimento	-10.6652
▁rivelare	-10.6652
▁ecosistemi	-10.6653
▁autentici	-10.6658
▁bagno	-10.6662
▁guarigione	-10.6662
▁sollevato	-10.6662
▁vanno	-10.6665
▁cronica	-10.6674
Angular	-10.6675
▁interessate	-10.6685
▁nazione	-10.669
▁aerea	-10.6692
▁serviti	-10.6694
▁regioni	-10.6698
▁legati	-10.671
▁dialogo	-10.671
▁perfettamente	-10.6722
▁affrontando	-10.6727
▁scrittore	-10.6727
▁positivi	-10.6731
▁indimenticabili	-10.6732
▁resistere	-10.6739
▁generato	-10.6753
▁Johnson	-10.6753
PE	-10.6756
▁vicenda	-10.6757
▁continuato	-10.6759
▁preferita	-10.676
W	-10.6763
▁tu	-10.6767
▁dotata	-10.6769
▁scultura	-10.677
▁rivoluzione	-10.6772
▁lanciato	-10.6775
▁vostro	-10.6778
▁pulito	-10.6779
▁eccessiva	-10.678
▁dessert	-10.6786
▁reddito	-10.6786
▁sosta	-10.6787
▁vicina	-10.6789
▁simboli	-10.6789
▁bianca	-10.6793
▁apertura	-10.6795
▁Tokyo	-10.6801
▁coltivazione	-10.6806
▁urbano	-10.6807
▁Alla	-10.6809
▁limite	-10.682
▁eccellenza	-10.6821
▁luna	-10.6829
▁impostare	-10.683
▁realizzati	-10.683
▁porterà	-10.683
▁attento	-10.6831
▁spendere	-10.6842
▁luminoso	-10.6846
▁resistente	-10.6846
▁privata	-10.6848
▁prosperità	-10.6854
▁cambiata	-10.6855
▁sottolineato	-10.6855
▁russi	-10.6856
▁fiumi	-10.6856
▁eccesso	-10.686
▁dormire	-10.6875
▁determina	-10.6876
▁cellulare	-10.6876
▁affidabili	-10.6876
▁carte	-10.6881
▁sincerità	-10.6883
▁simile	-10.6886
▁tardi	-10.6887
▁tempesta	-10.6894
▁circolazione	-10.6903
▁appassionato	-10.6907
affidabilità	-10.6917
▁esso	-10.6921
▁vivevano	-10.6923
▁approcci	-10.6927
▁opinione	-10.693
▁soli	-10.693
▁mantiene	-10.6933
▁normale	-10.6935
▁impegna	-10.6936
▁comportato	-10.6943
▁attacco	-10.6949
▁ideali	-10.695
▁strutturato	-10.695
organismo	-10.6953
▁GreenTech	-10.6958
▁trasforma	-10.6961
▁equo	-10.6963
▁chef	-10.6963
▁trattamenti	-10.6964
eranno	-10.6967
▁nero	-10.697
▁vostr	-10.697
▁Prima	-10.6971
▁crittografia	-10.6972
▁salutari	-10.6993
insalata	-10.7003
▁arrendersi	-10.7011
▁viso	-10.7012
▁laboratorio	-10.7012
▁estreme	-10.7013
▁esterna	-10.7013
▁verificarsi	-10.7014
▁pattern	-10.7028
▁evolve	-10.703
iniziativa	-10.7042
▁imprevisti	-10.7042
▁interattive	-10.7044
▁marcia	-10.7051
▁compilare	-10.7053
▁progettati	-10.7058
▁bicchiere	-10.7061
▁tortuose	-10.7062
▁cancellare	-10.7063
▁studente	-10.7064
▁aggiornata	-10.7068
▁tali	-10.7076
▁conciliare	-10.7083
▁p	-10.7094
▁segni	-10.7095
introduzione	-10.7098
▁visiva	-10.7099
▁tradurre	-10.7108
▁invita	-10.7109
▁libreria	-10.7115
▁trattato	-10.7116
▁Consiglio	-10.7122
▁consentito	-10.7123
▁tale	-10.7125
▁Botticelli	-10.7127
▁rovine	-10.7127
▁battaglie	-10.713
▁parchi	-10.7131
▁connettersi	-10.7131
▁II	-10.7136
▁rimasto	-10.7142
▁climatici	-10.7143
▁pesca	-10.7145
▁risposto	-10.7146
▁scritta	-10.715
▁conformità	-10.7151
▁canali	-10.7161
▁attivamente	-10.7165
▁preparava	-10.7173
▁palazzo	-10.7181
▁creativa	-10.7184
▁ottimali	-10.7184
▁articolo	-10.7187
▁selvatica	-10.7191
▁gestito	-10.7196
▁atmosfera	-10.7202
▁rimase	-10.7211
▁cioccolato	-10.7211
▁continuò	-10.7213
▁colorate	-10.7215
▁iniziali	-10.7216
▁trattoria	-10.7219
▁successi	-10.7224
▁Rachel	-10.7228
▁rinnovabili	-10.7232
▁saputo	-10.7233
▁chimici	-10.7235
Ucraina	-10.7235
▁pianificato	-10.7236
▁imponente	-10.7241
▁artigiani	-10.7243
vi	-10.7251
▁coprire	-10.7251
▁bordo	-10.7252
Debian	-10.7253
▁migrazione	-10.7254
▁movimenti	-10.7254
▁imparando	-10.7255
▁male	-10.726
▁muscoli	-10.7263
▁partecipato	-10.7263
▁costruttivo	-10.7263
▁dispone	-10.7263
▁angoli	-10.7273
▁rivelato	-10.7275
▁ansie	-10.7279
▁operatori	-10.7283
▁sorprese	-10.7295
▁ottimizzazione	-10.7297
▁esistono	-10.7306
▁sentivano	-10.7309
▁seduto	-10.7314
▁influenzando	-10.7315
▁americano	-10.7315
▁esegue	-10.7318
▁quota	-10.7341
occhio	-10.7348
▁lavorazione	-10.737
vrebbero	-10.737
sito	-10.7373
▁mete	-10.7375
unico	-10.7375
▁potevo	-10.7377
▁ascolto	-10.7377
▁Nova	-10.7383
▁cordiale	-10.7384
▁fedele	-10.7385
▁visitando	-10.7388
▁abbonamento	-10.7388
▁ferma	-10.7392
▁sentendo	-10.7396
▁costruita	-10.7397
▁liberamente	-10.7427
▁costringendo	-10.7428
▁atteso	-10.744
▁apre	-10.7441
▁parlato	-10.7443
▁camminavo	-10.7446
▁immediata	-10.745
▁rendeva	-10.7457
▁vittima	-10.7467
▁medicina	-10.7471
▁portava	-10.7475
▁siciliana	-10.7477
▁gradevole	-10.7478
▁mangiato	-10.7479
▁lavanda	-10.7489
ire	-10.7504
▁lavorava	-10.7504
▁alcuna	-10.7505
▁Parco	-10.7506
▁stavo	-10.7508
▁aumentata	-10.7508
▁Ava	-10.7511
▁scarpe	-10.7519
▁nutrizionali	-10.7521
▁attori	-10.7539
▁palazzi	-10.7539
▁variazioni	-10.7541
▁maturità	-10.7549
▁attraversato	-10.7553
▁risponde	-10.7556
▁Presidente	-10.7561
▁sorgere	-10.7564
▁amministrazione	-10.7572
Giappone	-10.7577
▁talento	-10.7582
▁ferro	-10.7583
▁valutando	-10.7592
▁elettronica	-10.7593
▁fin	-10.7594
▁guadagna	-10.7598
▁resta	-10.7598
▁Tra	-10.76
▁she	-10.7607
▁veniva	-10.7607
▁preoccuparsi	-10.7612
▁mantenuto	-10.7623
▁gravità	-10.7623
▁incomprensioni	-10.7623
▁deriva	-10.7629
▁stabilisce	-10.763
▁realizzata	-10.7638
▁ingresso	-10.7644
▁bellezze	-10.7648
▁andata	-10.765
▁porto	-10.7654
▁avre	-10.7659
▁impossibile	-10.7659
▁leggendo	-10.766
▁compatibile	-10.7667
▁respiro	-10.7667
▁favore	-10.7668
▁Alcuni	-10.7668
▁compilazione	-10.7668
▁fornite	-10.7672
▁rumena	-10.7686
▁fertile	-10.7686
▁nasconde	-10.7686
esplorazione	-10.7687
▁sagge	-10.7687
▁annuale	-10.7688
▁distruzione	-10.7693
▁stimolare	-10.7694
▁Monte	-10.7694
▁procede	-10.7696
▁senti	-10.7705
▁unisce	-10.7705
▁devozione	-10.7707
▁dinamici	-10.7711
▁finito	-10.7713
▁frequenza	-10.7718
▁improvvisamente	-10.7718
▁arrivo	-10.7721
apertura	-10.7729
▁assicurativa	-10.7729
▁discusso	-10.7732
▁figlia	-10.7737
▁aspirazioni	-10.7751
▁ingegneri	-10.7751
▁disastrose	-10.7752
▁credeva	-10.7756
▁Puoi	-10.7756
▁sofferenza	-10.776
▁nuovamente	-10.7762
▁professor	-10.7769
▁eppure	-10.7769
▁gallerie	-10.777
▁credenziali	-10.7771
▁decisionale	-10.7772
▁irreparabili	-10.7772
▁determinante	-10.7773
▁valutato	-10.7773
▁vie	-10.7774
▁rimuovere	-10.7783
▁spiegato	-10.7785
▁cardiache	-10.7792
▁signore	-10.7792
▁diagnosi	-10.7793
▁multimediali	-10.7803
▁debole	-10.7804
▁immunitario	-10.7814
▁riscaldamento	-10.7814
▁UV	-10.7814
▁personaggio	-10.7827
▁giardini	-10.7835
▁integratori	-10.7838
▁camminare	-10.784
▁ammettere	-10.784
▁vicini	-10.7842
▁scheda	-10.7857
▁tempestivamente	-10.7857
▁sanzioni	-10.7857
▁amano	-10.786
▁comunicazioni	-10.7867
oro	-10.7867
▁estende	-10.7873
▁indipendente	-10.7875
▁blu	-10.7882
▁primi	-10.7883
▁selezionato	-10.7883
▁camere	-10.7892
▁ricche	-10.7904
▁impiegato	-10.7909
▁ridotto	-10.7912
▁routing	-10.7917
▁versatilità	-10.7921
▁recentemente	-10.7924
▁esse	-10.7924
▁duro	-10.7927
▁ebbe	-10.7933
▁migliorata	-10.7933
▁Attravers	-10.7934
▁vale	-10.7945
▁somma	-10.7946
▁belli	-10.795
▁successivo	-10.7956
opinione	-10.7958
aroma	-10.7964
E	-10.7964
▁definito	-10.7968
▁consistenza	-10.7971
agricoltura	-10.7972
▁corruzione	-10.7976
▁assoluta	-10.7979
agenzia	-10.7981
▁insegna	-10.7984
▁svolgono	-10.7986
▁elettronico	-10.7989
▁plasmare	-10.7991
▁ospedale	-10.7991
▁compresi	-10.7993
▁confermare	-10.7995
▁eseguita	-10.7995
▁mite	-10.7995
▁tariffe	-10.7998
▁Nutella	-10.8007
▁futuri	-10.8009
▁competitivo	-10.8011
▁it	-10.8014
▁vivace	-10.8021
aereo	-10.8022
▁hardware	-10.8027
▁accuratezza	-10.8031
▁indica	-10.8034
▁organismo	-10.8038
▁moderazione	-10.8041
▁credenze	-10.8053
▁formati	-10.8065
▁rilevare	-10.8066
▁collaborare	-10.8066
▁criteri	-10.8068
▁vantaggioso	-10.807
▁legato	-10.8073
▁Ha	-10.8074
▁fiscali	-10.8074
▁seleziona	-10.8079
▁gesto	-10.8084
▁solitudine	-10.8085
▁attimo	-10.8085
▁dipendente	-10.8086
▁godendosi	-10.8088
▁raggiunse	-10.8102
appartamento	-10.8103
▁poterl	-10.8104
▁nomi	-10.8107
umore	-10.8109
▁pietre	-10.8109
▁Festa	-10.811
▁ombre	-10.8112
▁As	-10.812
▁esprimersi	-10.8122
▁blocchi	-10.8125
▁odierna	-10.813
▁lombarda	-10.813
▁esposizione	-10.8132
▁crede	-10.814
▁Nonna	-10.8141
▁visivo	-10.8142
▁natale	-10.8144
▁scegliendo	-10.8145
▁autorizzazioni	-10.8152
▁memorabile	-10.8152
▁produttore	-10.8153
▁automaticamente	-10.8153
▁Ucraina	-10.8155
▁popolarità	-10.8162
▁suonare	-10.8166
▁meticolosa	-10.8173
▁flora	-10.8174
▁nuotare	-10.8175
▁celebrazione	-10.8176
▁tensioni	-10.8177
▁schermo	-10.8185
▁tempestivo	-10.8185
▁controller	-10.8186
▁giudice	-10.8199
▁comodità	-10.8207
▁configurazioni	-10.8214
▁dono	-10.8214
▁nessuno	-10.8217
▁musicali	-10.8219
investimento	-10.8225
▁centri	-10.8226
▁riceve	-10.823
▁incantato	-10.8234
▁melodia	-10.8241
▁calde	-10.8242
▁nuvole	-10.8242
▁fusione	-10.825
▁giusti	-10.8256
▁accanto	-10.8259
▁profondi	-10.8272
▁sanitari	-10.8275
▁cancellazione	-10.8275
▁scacchi	-10.8277
▁grammatica	-10.8278
▁30	-10.8284
▁fabbrica	-10.8286
▁accaduto	-10.8295
▁gran	-10.8313
▁globalizzazione	-10.8319
▁usanze	-10.8319
▁galleria	-10.832
▁nipoti	-10.832
▁disastro	-10.8323
▁stretto	-10.8324
▁notturno	-10.8331
▁economia	-10.8331
▁assaporare	-10.8334
▁abito	-10.8343
▁estivo	-10.8348
▁effettuato	-10.8356
▁contesti	-10.836
▁legate	-10.8363
▁fiscale	-10.8365
▁avvocato	-10.8384
▁reperti	-10.8387
icona	-10.8387
▁Entrate	-10.8387
▁curare	-10.839
▁muove	-10.8393
▁integrale	-10.8394
▁vitalità	-10.8401
▁continuano	-10.8406
▁vere	-10.8409
▁capolavori	-10.841
▁correggere	-10.841
▁visite	-10.8411
▁aroma	-10.8413
▁sintonia	-10.8421
▁armonioso	-10.8433
▁espressioni	-10.8435
▁buono	-10.8436
▁interessati	-10.8436
▁prevedere	-10.8437
▁disabilità	-10.8439
▁stadio	-10.8445
▁compiere	-10.8446
▁sviluppatore	-10.8452
▁funzionali	-10.8454
▁lontana	-10.8459
▁fumo	-10.8463
▁IP	-10.8464
▁stesura	-10.8466
estensione	-10.8468
▁Sara	-10.8468
▁aprendo	-10.8475
▁mira	-10.8476
▁Gimignano	-10.8478
▁variegato	-10.8479
▁prospero	-10.848
▁strano	-10.8485
▁vogliono	-10.8491
▁sarmale	-10.8493
▁conquista	-10.85
▁sporco	-10.8501
▁poesia	-10.8512
▁vegetali	-10.8513
▁regime	-10.8513
▁europei	-10.8517
aggiunta	-10.852
▁continuità	-10.8524
▁stranieri	-10.8526
▁passando	-10.8528
▁tela	-10.853
▁aiuterà	-10.8536
▁Azura	-10.8537
▁successe	-10.8543
▁insalate	-10.8548
▁fisici	-10.8551
▁quell	-10.8557
▁credibilità	-10.8558
▁scenario	-10.8565
▁acceso	-10.8565
▁specialisti	-10.8567
▁sfuggire	-10.8571
▁significava	-10.8593
▁foglio	-10.8597
▁bocca	-10.8599
▁ritien	-10.8601
▁Lazio	-10.8602
interesse	-10.8603
▁descriverebbe	-10.8604
▁uscita	-10.8606
▁industriale	-10.8607
▁consigliato	-10.8611
▁classi	-10.862
▁manager	-10.8623
elemento	-10.8625
▁chilometri	-10.8628
▁capitano	-10.8639
▁itinerario	-10.8641
▁epoca	-10.8641
sse	-10.8645
aveva	-10.8648
▁fame	-10.8651
▁brevi	-10.8662
▁negativamente	-10.8664
▁tour	-10.8675
▁Blini	-10.8684
▁esser	-10.8687
▁sessioni	-10.8688
▁vetro	-10.8698
▁salvaguardia	-10.8698
▁successiva	-10.8699
▁comunque	-10.8709
Era	-10.8721
▁driver	-10.8722
▁guadagnare	-10.8725
▁sape	-10.8726
▁abbondante	-10.8731
▁formaggi	-10.8732
▁aromi	-10.8735
▁respirazione	-10.8737
▁padronanza	-10.8756
▁clausole	-10.8757
▁prefissati	-10.8757
▁zuppa	-10.8769
▁definita	-10.8772
▁preziosa	-10.8773
▁ordini	-10.8773
▁cuoco	-10.8773
▁median	-10.8785
▁selezionati	-10.8787
▁camicia	-10.8792
▁prosperare	-10.8795
▁ottimizzato	-10.8796
▁creature	-10.8805
▁finanziamento	-10.8805
▁irripetibile	-10.8805
▁valli	-10.8808
▁alloggio	-10.8811
▁succedere	-10.8813
▁sanità	-10.8816
▁principio	-10.8816
▁Php	-10.8817
▁inaspettati	-10.8819
▁passate	-10.882
▁riusciti	-10.882
eccellenza	-10.8821
▁Siena	-10.8823
▁Los	-10.8826
▁numeri	-10.8827
▁conclusioni	-10.8828
▁sviluppata	-10.8832
▁renderla	-10.8841
▁soldati	-10.8841
▁preparando	-10.8845
▁laghi	-10.8848
▁rapidi	-10.885
▁formattazione	-10.8852
▁prepararsi	-10.8852
▁vivaci	-10.8854
▁etichette	-10.8854
▁amicizia	-10.8861
▁misterioso	-10.8864
▁rocce	-10.8876
▁gratuito	-10.8876
▁prevista	-10.8878
▁supera	-10.89
▁spedizione	-10.8901
in	-10.8905
▁materie	-10.8905
▁lasciò	-10.8906
▁accompagnata	-10.8906
▁meccanismi	-10.8911
▁sconfitta	-10.8912
▁Mdina	-10.8913
▁assume	-10.8914
▁volevano	-10.8915
▁seguì	-10.8921
▁influito	-10.8923
▁risolve	-10.8925
OR	-10.8926
▁organizzata	-10.8927
▁chiamare	-10.8933
▁vitali	-10.8935
▁sanguigna	-10.8935
▁pot	-10.8936
PDF	-10.8939
▁mosaico	-10.8947
▁lancio	-10.8954
▁affrontano	-10.8954
▁caratterizzate	-10.8954
▁orgogliosa	-10.8959
▁assistere	-10.8962
▁creme	-10.8967
▁record	-10.8967
▁zio	-10.8969
▁focaccia	-10.8972
▁raccolte	-10.8984
▁amata	-10.8984
▁intuitivo	-10.8985
▁carboidrati	-10.8995
▁regolazione	-10.8999
▁mappa	-10.8999
▁dannose	-10.8999
▁racconto	-10.9002
▁relativi	-10.9005
▁affreschi	-10.9007
▁scrittori	-10.9009
▁conosce	-10.9012
▁guide	-10.9017
?'	-10.9017
▁Chiesa	-10.9019
ombra	-10.9023
▁proposte	-10.9024
▁Vita	-10.903
▁sorveglianza	-10.9031
▁dolcezza	-10.9032
▁saggia	-10.9037
▁Ostia	-10.9037
▁ragazze	-10.905
▁esclusivi	-10.9053
▁dice	-10.9056
▁lavorativo	-10.9083
▁trasformato	-10.9087
▁avverse	-10.9094
▁Mio	-10.9097
uscita	-10.9101
▁Navona	-10.9104
▁principessa	-10.9107
▁alte	-10.9108
▁grazia	-10.9114
▁scrupolosa	-10.9115
▁imprenditori	-10.9116
▁post	-10.9116
▁sentimento	-10.9118
▁analizzato	-10.9119
▁arriva	-10.9119
en	-10.912
▁condivise	-10.912
▁confronto	-10.9121
▁festività	-10.9128
▁candidato	-10.9129
▁scorsa	-10.913
▁rilassato	-10.9131
▁cancro	-10.914
▁intensità	-10.9149
▁vetta	-10.9154
▁prioritario	-10.9155
▁mosse	-10.9162
▁risate	-10.9166
▁Presto	-10.9167
alternativa	-10.9174
▁tartufo	-10.9177
▁batterie	-10.9184
▁caffeina	-10.9185
▁andando	-10.9187
▁tool	-10.9188
▁sanitarie	-10.9188
▁autenticazione	-10.919
▁diceva	-10.9191
▁qualificati	-10.9203
▁autonomia	-10.921
▁medica	-10.9211
▁conversazioni	-10.9215
▁racchiude	-10.9215
▁selvatici	-10.9215
▁calmare	-10.9216
▁squadre	-10.9222
▁greca	-10.9228
Com	-10.923
▁cerco	-10.9236
▁scorre	-10.9237
▁Medioevo	-10.9239
▁vissuta	-10.9242
▁appartamento	-10.9243
▁preferiti	-10.9243
mento	-10.9244
▁nazioni	-10.9248
▁scala	-10.9253
▁voci	-10.9257
che	-10.9259
▁sperimentare	-10.9267
▁costosi	-10.9267
▁riproduzione	-10.9276
▁streaming	-10.9279
▁combina	-10.9288
▁curioso	-10.929
▁registro	-10.9291
Prima	-10.93
▁competizione	-10.9301
▁promozioni	-10.9304
▁competitivi	-10.9305
▁autenticità	-10.9312
▁flussi	-10.9315
▁presentata	-10.9317
▁riservatezza	-10.9326
▁pubblicità	-10.9326
▁Internet	-10.9327
▁segnata	-10.933
▁Romania	-10.933
▁Così	-10.933
▁renderl	-10.9331
▁scopri	-10.9331
▁analizza	-10.9332
▁strategiche	-10.9339
▁interno	-10.9346
Potrebbe	-10.9348
▁blog	-10.935
▁intoppi	-10.9351
▁splendeva	-10.9353
▁emerge	-10.9353
▁Spagna	-10.9356
▁interpretare	-10.9357
▁guidata	-10.9361
▁nazionalità	-10.9363
▁russe	-10.9364
▁barca	-10.9365
▁istante	-10.9373
▁cipolle	-10.9377
▁colonne	-10.9377
▁suggestivo	-10.9378
▁campagne	-10.938
▁ampliare	-10.9392
▁segue	-10.9401
▁raccontato	-10.9404
▁pericoloso	-10.9406
▁JSON	-10.9406
▁patate	-10.9414
▁system	-10.9423
▁caduta	-10.9427
▁condiziona	-10.9427
▁dorata	-10.9428
▁spaziale	-10.9429
▁pro	-10.9431
essere	-10.9442
▁informazione	-10.9455
▁miscela	-10.9463
▁gioielli	-10.9465
▁fossi	-10.9466
▁duraturi	-10.9469
▁aprì	-10.9476
Tutti	-10.9476
▁insegnanti	-10.9478
▁opportuno	-10.9481
▁Aveva	-10.9482
▁orari	-10.9483
▁unirsi	-10.9488
▁credo	-10.9489
articolo	-10.9495
▁splende	-10.9502
▁promessa	-10.9504
▁elevata	-10.9512
▁avessi	-10.9513
▁banche	-10.9514
▁amministratori	-10.9515
▁passa	-10.9523
▁percepire	-10.9527
▁io	-10.9528
▁scoraggiare	-10.9528
▁farfalle	-10.9528
▁esplorazione	-10.953
▁dipinti	-10.9533
▁programmatore	-10.9534
▁tutorial	-10.9548
▁terrazza	-10.9549
▁urgente	-10.9552
▁correzioni	-10.9553
▁remoto	-10.9555
▁apprezzati	-10.9557
▁aerei	-10.9561
▁gita	-10.9566
▁viviamo	-10.9579
▁Smith	-10.9588
odore	-10.959
▁ormai	-10.959
▁traguardo	-10.9604
▁spirituale	-10.9605
▁dovr	-10.9605
impressione	-10.9608
▁curato	-10.961
▁periodi	-10.961
▁capi	-10.9614
▁TV	-10.9615
▁rinnovamento	-10.9617
▁tenacia	-10.9617
▁linguistica	-10.9619
▁generando	-10.962
▁deboli	-10.9644
avvento	-10.9646
Sull	-10.9655
▁sostanziale	-10.9656
▁deserto	-10.9656
▁arrivati	-10.9663
▁colloquio	-10.9663
▁rigido	-10.9669
▁scelgono	-10.9669
▁interventi	-10.9669
▁tenuto	-10.9676
▁isole	-10.9681
▁interpretazione	-10.9683
▁false	-10.9683
▁dava	-10.9697
▁rate	-10.97
▁code	-10.9703
▁Monti	-10.9705
▁accolta	-10.9718
▁rilassarmi	-10.9719
▁panino	-10.972
▁permessi	-10.9732
▁avvicinò	-10.9732
▁gentilezza	-10.9733
▁fermò	-10.974
▁potrei	-10.9743
▁democrazia	-10.9746
▁devastante	-10.9747
▁integrato	-10.9753
▁sentita	-10.9756
▁controlla	-10.9759
▁palato	-10.9759
▁atmosferico	-10.9759
▁blocco	-10.9763
▁rec	-10.9764
▁guardando	-10.977
▁rivelò	-10.9772
▁commenti	-10.9773
New	-10.9776
▁rimasta	-10.9787
▁acquistato	-10.9788
▁mirate	-10.9794
▁script	-10.9795
▁aspettava	-10.98
▁distrazioni	-10.98
renderlo	-10.9805
▁verificato	-10.9809
▁romantica	-10.9812
▁tendenza	-10.9812
▁condotto	-10.9813
onda	-10.9816
amente	-10.9816
▁regala	-10.9817
▁Oggi	-10.9818
abbiano	-10.982
▁africana	-10.9825
▁catturato	-10.9828
▁incontra	-10.9831
▁aiutava	-10.9837
▁caldi	-10.9837
▁furto	-10.984
▁potre	-10.985
▁mensile	-10.9851
▁clicca	-10.9854
▁specializzata	-10.9855
tribuendo	-10.9857
▁pertanto	-10.9864
▁attraversa	-10.9864
▁ascolta	-10.9874
▁comunale	-10.9877
▁titolo	-10.9878
▁delicata	-10.9879
▁immediato	-10.9879
▁ascoltato	-10.9885
▁insegnante	-10.9893
▁segnali	-10.9895
▁weekend	-10.9895
▁pregiudizi	-10.9898
▁smartphone	-10.9902
▁mantenimento	-10.9902
▁testimonianze	-10.9903
▁Scala	-10.9904
▁metri	-10.9905
▁ufficiali	-10.9906
▁funghi	-10.9917
▁sinergia	-10.9921
▁alti	-10.993
▁immaginare	-10.9933
▁mondiali	-10.9934
▁condivisa	-10.9936
▁Ero	-10.9938
▁prendono	-10.9942
▁target	-10.9956
▁vegetazione	-10.9956
▁dottore	-10.9958
▁pratici	-10.9961
entità	-10.9968
▁dovremmo	-10.9969
▁mitigare	-10.9971
certificato	-10.9971
▁nonni	-10.9974
▁vedeva	-10.9975
▁tetto	-10.9979
Attravers	-10.998
▁illuminava	-10.9981
rmi	-10.9982
▁caratterizzati	-10.9985
▁Che	-10.9986
▁esposti	-10.9989
ato	-10.9989
▁andati	-10.9993
▁designer	-10.9997
▁straniero	-10.9998
▁coniugi	-10.9998
▁promesse	-10.9998
▁borscht	-11
▁parlando	-11.0001
▁torre	-11.0002
▁radicale	-11.0011
▁rappresentanti	-11.0019
▁dollari	-11.0023
▁testing	-11.0024
▁qualificato	-11.0024
▁Santa	-11.0025
▁assenza	-11.0032
Tra	-11.0036
▁Torino	-11.0043
▁cardiovascolare	-11.0051
▁impara	-11.0052
▁condividendo	-11.006
▁scientifiche	-11.0063
▁tifosi	-11.0063
▁confusa	-11.0066
▁pubblicato	-11.0068
▁app	-11.0072
▁considerate	-11.0072
▁medievale	-11.0073
▁pannelli	-11.0076
▁riunioni	-11.0078
▁pensava	-11.0087
▁delicatezza	-11.0089
Leo	-11.0094
▁disagio	-11.0096
▁fragile	-11.0103
▁fotografia	-11.0107
▁aiutando	-11.0109
▁aggiungendo	-11.0112
▁creava	-11.0121
▁iniziata	-11.0121
▁convincere	-11.0122
▁decisi	-11.0124
▁conti	-11.0132
▁desiderate	-11.0134
▁ossa	-11.0137
▁impegnato	-11.0137
▁sfidare	-11.014
▁riuniscono	-11.0143
▁salse	-11.0149
▁previsti	-11.0149
▁aggiunge	-11.015
▁frustrazione	-11.0157
▁oculata	-11.0158
▁nazionali	-11.0159
▁learning	-11.016
▁accelerare	-11.016
▁provocare	-11.0162
insegnante	-11.0169
▁trasferire	-11.0169
▁infezioni	-11.0171
▁riflettono	-11.0171
▁convincente	-11.0173
▁sanno	-11.0175
▁superando	-11.0184
▁modernità	-11.0184
▁Cattedrale	-11.0184
▁direttiva	-11.0185
▁inclusa	-11.0187
Devi	-11.0189
▁epoche	-11.0191
▁disegnare	-11.0191
▁verranno	-11.0198
▁forniti	-11.0205
infiammazione	-11.0208
Molti	-11.0208
▁influenzate	-11.0209
▁perdendo	-11.0211
▁ripetere	-11.0215
▁sufficienti	-11.0215
▁trama	-11.0221
▁immaginazione	-11.0222
▁sentirmi	-11.0229
▁resti	-11.023
▁offrì	-11.0238
▁Invece	-11.0241
▁cacio	-11.0241
vo	-11.0243
▁pilota	-11.0244
orchestra	-11.025
▁rimborso	-11.0253
università	-11.0265
▁esagerare	-11.027
▁indirizzi	-11.0271
▁vasto	-11.0274
▁occidentale	-11.0274
▁romano	-11.0276
▁estensioni	-11.0281
▁fornitori	-11.0281
▁modificato	-11.029
▁on	-11.0292
▁impedisce	-11.0296
▁anomalie	-11.0296
▁debba	-11.0297
▁subire	-11.0297
▁euro	-11.0299
▁eccezionale	-11.0303
▁scomparsa	-11.0307
▁militare	-11.0308
▁sud	-11.0321
▁violazioni	-11.0321
▁pescatori	-11.0321
▁lunghi	-11.0322
▁perfezionare	-11.0323
▁attivare	-11.0327
▁noci	-11.0334
▁radicalmente	-11.0334
▁habitat	-11.0335
emozione	-11.0338
▁imprenditrice	-11.0343
▁frequenti	-11.0345
▁inconvenienti	-11.0352
▁memorizzare	-11.0353
▁europee	-11.0358
▁Sì	-11.0358
▁ritengo	-11.036
▁svago	-11.0362
▁intricate	-11.0366
▁user	-11.0366
▁shopping	-11.0375
▁piemontese	-11.0376
▁morbida	-11.0377
▁gol	-11.0379
▁reali	-11.0381
▁consolare	-11.0391
▁no	-11.0397
▁protetto	-11.0398
Luca	-11.0399
▁manoscritto	-11.0404
▁orientata	-11.0405
▁resistenti	-11.0406
▁had	-11.0411
▁empatia	-11.0414
▁bloccare	-11.0414
▁disturbi	-11.0418
▁classico	-11.0435
Sofia	-11.0438
▁statua	-11.0444
▁ognuna	-11.0446
▁volume	-11.0446
▁panna	-11.0447
▁direttore	-11.0448
▁estate	-11.0449
▁mostrato	-11.0455
▁Borghese	-11.0461
▁lino	-11.0462
▁ovvero	-11.0473
▁nemico	-11.0474
▁giocando	-11.0478
▁magre	-11.0478
▁Certificato	-11.0478
▁assicurando	-11.0479
▁esitare	-11.0482
Liguria	-11.0484
▁polvere	-11.0488
ristrutturazione	-11.0489
▁assorbire	-11.0489
▁polenta	-11.049
▁tipica	-11.049
▁coinvolgenti	-11.0491
▁ciascun	-11.0493
▁manualmente	-11.0501
▁ricadute	-11.0501
▁dedicarsi	-11.0502
▁panni	-11.0505
▁pacifica	-11.0509
▁pomodori	-11.0511
▁produttori	-11.0516
▁raffinata	-11.0518
▁privato	-11.0521
▁provider	-11.0521
CONT	-11.0528
▁algoritmo	-11.0528
▁rurali	-11.053
▁distinguono	-11.053
▁favorendo	-11.0531
▁prestazione	-11.0534
▁cartelle	-11.0535
▁nata	-11.0541
▁purtroppo	-11.0543
▁canzone	-11.0545
▁inizialmente	-11.0558
▁illecite	-11.056
Tokyo	-11.056
▁commissioni	-11.0565
▁supportare	-11.0569
▁paio	-11.0571
▁recarsi	-11.0572
▁rilasciato	-11.0573
▁sconti	-11.0573
▁autorizzato	-11.0574
▁colpisce	-11.0574
▁toccare	-11.0578
▁mobile	-11.0579
▁cattura	-11.0581
▁Mar	-11.0583
▁mossa	-11.0588
▁orgoglio	-11.0591
▁ospitalità	-11.0596
Raggiungere	-11.0597
▁intenzione	-11.06
▁vincoli	-11.0601
▁canzoni	-11.0601
▁ridere	-11.0605
NENT	-11.0607
▁portafoglio	-11.0616
attrazione	-11.0617
▁spiega	-11.0619
▁dovuta	-11.0621
▁studia	-11.0626
▁tabelle	-11.063
▁corporea	-11.0631
▁prontamente	-11.0633
▁arrivata	-11.0634
▁concreti	-11.0635
▁tecnologici	-11.0636
▁private	-11.0638
▁lasciano	-11.0639
▁permetterà	-11.064
▁vivi	-11.0642
▁decorazioni	-11.0643
▁avvincente	-11.0643
▁clic	-11.0644
▁amato	-11.0645
▁rappresentazion	-11.0645
▁molt	-11.065
▁celebre	-11.0654
▁background	-11.0655
treno	-11.0655
▁assicurazione	-11.0655
▁Alpi	-11.0657
▁barista	-11.0657
▁rottura	-11.0658
▁maggiori	-11.0661
▁Microsoft	-11.0664
▁allocare	-11.0666
▁Red	-11.0667
▁meccaniche	-11.0671
▁palpabile	-11.0671
▁verificano	-11.0674
▁fissare	-11.0675
▁vuoi	-11.0679
▁sottolineando	-11.0686
▁figure	-11.0688
▁curiosa	-11.0689
▁manifestazione	-11.069
▁associati	-11.069
Africa	-11.0691
▁mostre	-11.0691
▁colpa	-11.0692
▁connessi	-11.0692
▁impiegati	-11.0701
▁combattere	-11.0702
▁venga	-11.0705
▁artigianali	-11.071
▁TechCorp	-11.0711
▁polizza	-11.0711
▁potenti	-11.0717
▁uscite	-11.0717
▁rinascimentale	-11.0729
▁fornitore	-11.073
▁bilancio	-11.0736
▁capaci	-11.074
▁diventati	-11.0743
t	-11.0756
▁quotidianità	-11.0757
▁nucleo	-11.0757
▁commesso	-11.0757
▁Insieme	-11.0758
▁architettonico	-11.0758
▁sbagliata	-11.0759
▁virtuali	-11.0761
▁trasporti	-11.0767
▁trasparenti	-11.0773
▁attenti	-11.0774
▁marino	-11.0779
▁affidabilità	-11.0783
▁familiarità	-11.0786
▁Germania	-11.0786
ir	-11.0789
▁Signoria	-11.0792
▁colesterolo	-11.08
▁interagiscono	-11.0814
▁riscoprire	-11.0815
▁agricola	-11.0816
▁tracce	-11.0817
▁capitolo	-11.0818
▁chiedendo	-11.0818
▁manifestare	-11.0824
▁pieni	-11.0829
▁farmaci	-11.0834
▁Caravaggio	-11.0837
▁Mario	-11.084
▁cresce	-11.0843
▁rendering	-11.0844
▁pannello	-11.0844
▁vendere	-11.085
▁tolleranza	-11.0858
▁mobilità	-11.0859
▁cristallino	-11.0861
▁rosa	-11.087
▁sguardo	-11.0873
▁redditi	-11.0873
rinnovo	-11.0875
▁aiutarmi	-11.0875
▁cristallina	-11.0875
sperando	-11.0883
▁grano	-11.0885
▁attendibile	-11.089
▁muovono	-11.089
▁piede	-11.0892
▁scambiare	-11.0894
▁solidarietà	-11.0901
▁ceramica	-11.0903
▁scorso	-11.0903
▁caratteri	-11.0905
▁selvaggia	-11.0908
H	-11.091
▁incessantemente	-11.0916
▁ispira	-11.0917
▁Bonifacio	-11.092
▁danzare	-11.0921
▁rappresentata	-11.093
▁Docker	-11.093
▁diffuso	-11.0934
▁farci	-11.0935
▁indagini	-11.0946
▁chiacchierare	-11.0946
▁circolo	-11.0947
▁apportate	-11.0954
▁gambe	-11.096
▁devastanti	-11.0961
▁giudizio	-11.0969
▁SSD	-11.0974
▁collocazione	-11.0976
▁indirizzo	-11.0978
▁associate	-11.098
▁rosse	-11.0986
▁visti	-11.099
▁soddisfacenti	-11.0992
▁interessato	-11.0992
▁molteplicità	-11.1004
▁raccontò	-11.1005
▁rivoluzionato	-11.1005
▁fondamenta	-11.1008
▁esperta	-11.1025
▁integrazione	-11.1026
▁ecologica	-11.1027
terrà	-11.1031
▁plastica	-11.1034
▁antenati	-11.1034
▁complicato	-11.1035
▁its	-11.1036
▁esplorato	-11.1043
▁albergo	-11.1045
▁preparata	-11.1047
▁mamma	-11.1051
▁limitata	-11.1053
▁maestria	-11.1057
▁servire	-11.1059
▁raffinatezza	-11.1063
▁esito	-11.1063
▁Teresa	-11.1064
▁nervoso	-11.1064
▁affascinanti	-11.1066
▁Dr	-11.1075
▁Akismet	-11.1086
▁blini	-11.1087
▁troviamo	-11.1094
▁nipote	-11.1094
▁valida	-11.1096
▁articolato	-11.1096
▁impreviste	-11.1097
▁firewall	-11.1107
▁collaborativo	-11.1108
▁sacco	-11.111
▁protetta	-11.1111
▁pregio	-11.1113
▁introdotto	-11.1114
ndipendentemente	-11.1114
▁Tatoeba	-11.1118
▁occorre	-11.1122
▁scarsità	-11.1122
▁inquinanti	-11.1123
▁orgoglioso	-11.1125
▁download	-11.1125
▁universitari	-11.1128
▁riporta	-11.1128
▁presentate	-11.113
▁forum	-11.1132
▁saper	-11.1133
▁sane	-11.1134
▁ambizioni	-11.1138
▁dominare	-11.1143
▁vecchi	-11.1147
▁pubblicare	-11.1152
▁cuccioli	-11.1153
▁favorevole	-11.1154
▁quartieri	-11.1156
▁rotte	-11.1158
▁romane	-11.116
▁comprendono	-11.1169
▁dolcemente	-11.1173
orologio	-11.1183
▁vigore	-11.1183
▁zip	-11.119
▁gestore	-11.1194
▁gestite	-11.1195
▁simboleggia	-11.1196
▁sfruttando	-11.1199
▁esattoriale	-11.1199
▁trovo	-11.1202
▁pensando	-11.1203
▁vibrante	-11.1207
▁grato	-11.1212
▁pierogi	-11.1212
▁imprenditore	-11.1212
▁causati	-11.1213
iscrizione	-11.1215
▁coordinare	-11.1216
▁labirinto	-11.1217
▁installa	-11.1221
ascolto	-11.1226
▁intrecciano	-11.1229
▁veri	-11.1231
▁certezza	-11.1233
▁politico	-11.1236
▁specializzate	-11.1236
▁dovere	-11.1238
▁antiossidanti	-11.1243
eccessiva	-11.1243
▁supporta	-11.1244
▁Django	-11.1244
▁rive	-11.1255
▁dimostra	-11.1257
▁liberi	-11.1259
▁motivazioni	-11.1261
▁pericolosa	-11.1262
▁costanti	-11.1271
▁leadership	-11.1273
▁mezzogiorno	-11.1273
▁extravergine	-11.1273
▁Valle	-11.1278
▁Cos	-11.1284
▁farmaco	-11.1289
ho	-11.129
▁faccia	-11.1292
▁armoniosa	-11.1293
▁rischiare	-11.1297
▁boschi	-11.1301
▁studentessa	-11.1304
▁leggende	-11.1308
▁inaspettato	-11.1309
orario	-11.1316
▁architettoniche	-11.1318
▁goder	-11.1321
▁divisione	-11.1331
▁Cina	-11.1335
Parigi	-11.1345
▁Dolomiti	-11.1349
▁opta	-11.135
▁energetico	-11.1366
▁imponenti	-11.1368
▁quantistica	-11.138
▁precauzioni	-11.138
▁finché	-11.1383
▁integrità	-11.1384
informazione	-11.1386
▁divertirsi	-11.1397
▁saturi	-11.1398
di	-11.1403
abilità	-11.1404
▁visitano	-11.1406
▁comprensibile	-11.1411
▁Michael	-11.1412
apporto	-11.1412
▁riparazioni	-11.1412
▁adottato	-11.1416
▁sistemare	-11.1418
U	-11.1419
▁segreta	-11.1421
▁sostenuto	-11.1426
▁intensi	-11.1435
▁mele	-11.1436
▁laurea	-11.1439
▁pranzare	-11.1441
amicizia	-11.1442
▁fonde	-11.1443
▁ricostruzione	-11.1443
amministrazione	-11.1443
▁aiutarla	-11.1445
▁Echo	-11.1451
Lombardia	-11.1452
▁scolastico	-11.1457
▁atopica	-11.1457
▁effettuata	-11.146
▁determinati	-11.1464
▁incide	-11.1468
▁assicurati	-11.1471
▁progettate	-11.1473
equipaggio	-11.1476
friendly	-11.1487
▁siccità	-11.1487
▁soddisfatti	-11.1491
▁destinazioni	-11.1491
▁porre	-11.1495
▁robot	-11.1497
▁raccontavano	-11.1499
altezza	-11.1505
▁stretti	-11.151
▁gestiscono	-11.1519
▁suscita	-11.1521
▁serio	-11.1528
▁soddisfi	-11.153
▁interne	-11.1534
▁sperimentazione	-11.1536
▁pianificando	-11.1536
ansietà	-11.1537
▁pianifica	-11.1546
inglese	-11.155
▁inconfondibile	-11.1551
▁vestito	-11.1556
▁marmo	-11.1563
▁notifiche	-11.1565
▁disperazione	-11.1565
▁aggiunti	-11.157
avvio	-11.1579
▁condimenti	-11.1583
▁Menaggio	-11.1588
▁meravigliosa	-11.1597
▁Emily	-11.16
▁machine	-11.1602
▁migliorò	-11.161
▁scalare	-11.161
▁pasticceria	-11.1615
▁notevoli	-11.1618
▁lavorativi	-11.1619
▁Io	-11.1624
▁perdersi	-11.1626
▁musicisti	-11.1628
▁facilitando	-11.1629
▁giocavano	-11.1632
▁leggeri	-11.1633
▁hook	-11.1638
▁comitato	-11.1643
▁straordinari	-11.1643
▁circondava	-11.1643
▁orizzonti	-11.1643
▁apparentemente	-11.1644
▁invitato	-11.1645
▁allenarsi	-11.1645
▁intricato	-11.1645
▁aiutarlo	-11.1646
▁incredibili	-11.1646
umidità	-11.1647
▁risparmio	-11.1652
▁scene	-11.1658
▁dovevo	-11.1666
▁divano	-11.1669
▁accadendo	-11.1672
istituzione	-11.1676
▁pre	-11.1678
▁protegge	-11.1682
▁tende	-11.1689
▁coesione	-11.169
▁cucciolo	-11.169
▁finanziare	-11.169
▁scuole	-11.1694
▁godendo	-11.1696
▁variabile	-11.1699
▁stanchi	-11.1707
▁dubbio	-11.1712
▁contratti	-11.1712
▁commissione	-11.172
▁borsa	-11.1723
▁sacrifici	-11.1725
▁garantito	-11.1727
▁elettrici	-11.1728
▁compresa	-11.173
▁risveglia	-11.1734
▁digestione	-11.1738
▁mettono	-11.1739
▁facciata	-11.1741
▁popolazioni	-11.1742
▁evitar	-11.1743
▁spinta	-11.1746
▁disoccupazione	-11.1754
▁normativa	-11.1755
▁fondata	-11.176
▁dannosi	-11.1765
▁zero	-11.177
▁soleggiato	-11.1771
▁armi	-11.1772
▁convinta	-11.1772
▁2	-11.1773
▁sci	-11.1779
▁lenta	-11.1781
arma	-11.1783
▁panchina	-11.1783
▁audio	-11.1785
de	-11.1786
▁stimola	-11.1787
▁diffusa	-11.1791
▁aumentò	-11.1803
▁interattivi	-11.1805
▁disposizioni	-11.1806
▁Parlando	-11.181
▁my	-11.181
▁care	-11.1811
▁robuste	-11.1811
▁differenzia	-11.1817
▁reagiscono	-11.1818
▁correnti	-11.182
▁riunivano	-11.1821
▁Emanuele	-11.1824
▁gradualmente	-11.1833
▁classiche	-11.1836
▁industriali	-11.1838
▁pura	-11.184
▁sesso	-11.184
▁perse	-11.1841
▁sorprendenti	-11.185
▁facilita	-11.1851
▁avvolge	-11.1852
▁mangia	-11.1854
ospedale	-11.1856
▁sicuramente	-11.1859
▁provenienza	-11.1866
Trova	-11.1868
▁fonda	-11.187
▁originalità	-11.1871
▁destra	-11.1873
▁passeggiando	-11.1882
▁attraversando	-11.1886
▁classici	-11.1887
▁fatte	-11.1892
▁pensano	-11.1894
▁attraversare	-11.1897
▁macchia	-11.1897
▁texture	-11.1902
▁elabora	-11.1915
Cremlino	-11.1915
▁ecologico	-11.1916
▁costruzioni	-11.1918
▁buio	-11.1921
▁malintesi	-11.193
▁dottoressa	-11.193
▁faticoso	-11.1931
▁notturna	-11.1932
▁culinario	-11.1942
▁burocratiche	-11.1946
▁agenzie	-11.1946
▁riuscivo	-11.1948
▁terze	-11.1948
▁uniscono	-11.1959
▁Dio	-11.1961
▁benefico	-11.1962
▁Sant	-11.1965
▁cominciò	-11.1965
▁calmo	-11.197
▁sopra	-11.1976
▁experience	-11.1977
▁sarda	-11.1979
▁altrettanto	-11.1979
▁illuminando	-11.198
▁spettatore	-11.1981
▁Pantheon	-11.199
▁esercitare	-11.2005
▁chiuso	-11.2005
▁fratelli	-11.2009
▁dichiarazione	-11.2017
▁ponderate	-11.203
▁uniforme	-11.2043
▁tristezza	-11.2044
▁coordinazione	-11.2044
▁debiti	-11.2046
▁infortuni	-11.2049
▁gradi	-11.205
▁riguarda	-11.205
▁umore	-11.2053
database	-11.2057
▁appuntamento	-11.2062
▁burro	-11.2068
▁20%	-11.2075
▁diffondere	-11.2075
▁pesante	-11.2077
▁impedire	-11.2077
▁competente	-11.2079
▁rispettato	-11.208
accessibilità	-11.2092
▁vettura	-11.2093
▁integrante	-11.2095
▁viventi	-11.2095
▁coerenti	-11.2095
▁spam	-11.2096
▁straniera	-11.2097
▁tono	-11.2106
▁procedimento	-11.2109
▁attrazione	-11.2111
▁notai	-11.2112
▁stagioni	-11.2114
Php	-11.212
▁volare	-11.212
▁mise	-11.2123
▁accattivante	-11.2127
▁ispirò	-11.2128
▁complicata	-11.2128
▁installazioni	-11.2129
▁rinnovata	-11.2129
▁meraviglioso	-11.2129
▁fecero	-11.213
▁stressante	-11.213
▁rosmarino	-11.2142
▁implementato	-11.2145
▁parenti	-11.2145
anziano	-11.2154
▁consegnato	-11.2156
▁network	-11.2157
eremo	-11.2161
▁animale	-11.2164
TH	-11.2164
▁esaminato	-11.2167
▁gestita	-11.2168
▁reca	-11.2168
▁soggett	-11.2174
▁soccorso	-11.2176
▁farina	-11.2177
▁discipline	-11.2179
▁No	-11.2179
Occorre	-11.2181
▁contrario	-11.2181
▁consenso	-11.2182
▁esami	-11.2184
▁creatore	-11.2187
▁indipendenza	-11.2192
▁definitiva	-11.2192
▁gastronomiche	-11.2192
▁gastronomia	-11.2193
uò	-11.2199
vendo	-11.2203
▁esiti	-11.2204
▁attrae	-11.2207
▁traguardi	-11.2209
▁vantaggiosa	-11.2219
▁cerchi	-11.222
▁comprato	-11.2232
ostacolo	-11.2234
▁correttezza	-11.2242
▁meccanici	-11.2245
▁architetture	-11.2246
▁ordinato	-11.2249
▁abbandonare	-11.2251
▁gestiti	-11.2254
▁disuguaglianza	-11.2259
▁optat	-11.226
▁spiegazioni	-11.226
▁relativa	-11.2265
▁editing	-11.2268
▁passeggiate	-11.2269
EAL	-11.2272
▁caratteristici	-11.2274
▁prestito	-11.2276
▁inadeguata	-11.2278
▁copre	-11.2279
▁rossi	-11.2279
▁solitamente	-11.2281
Su	-11.2281
▁osserva	-11.2282
▁premio	-11.2282
▁riuniva	-11.2288
avversario	-11.229
▁cani	-11.2293
▁cauti	-11.2296
▁Thompson	-11.2297
▁intricata	-11.2299
▁beneficiario	-11.2301
▁smettere	-11.2304
▁ingegnere	-11.2305
▁intrattenimento	-11.2306
▁mancata	-11.2311
avano	-11.2317
▁passata	-11.2318
▁visibile	-11.2318
▁agenti	-11.2331
▁sportive	-11.2332
▁ammirato	-11.2335
▁amare	-11.2337
▁pip	-11.2338
▁workshop	-11.234
▁cutanea	-11.2344
▁posizioni	-11.2344
▁programmatori	-11.2344
▁condotta	-11.2347
▁attende	-11.2351
▁criminali	-11.2355
▁marca	-11.2356
▁valide	-11.2357
▁rivolgersi	-11.2359
▁roccia	-11.236
▁maturazione	-11.236
▁riflessioni	-11.2362
▁seduta	-11.2363
▁sentii	-11.2367
▁Trastevere	-11.237
▁ville	-11.2377
▁proprietari	-11.2379
▁emergenze	-11.2381
▁avvio	-11.2384
▁competitive	-11.2386
▁accessori	-11.2388
y	-11.2389
▁riunisce	-11.2394
▁sopraffare	-11.2394
▁promuovendo	-11.2395
▁autonomo	-11.2395
▁gelato	-11.2397
▁m	-11.2398
▁inaspettate	-11.24
▁elaborati	-11.2401
riqualificazione	-11.2402
▁tendono	-11.2407
▁persa	-11.241
▁superfici	-11.241
▁autentiche	-11.2427
mettersi	-11.2428
▁insetti	-11.2428
▁riprendersi	-11.2431
▁vivendo	-11.2436
▁grata	-11.2439
▁sviluppando	-11.2439
▁esposta	-11.2449
ddirittura	-11.2449
scerà	-11.2452
▁comodo	-11.2453
▁desiderata	-11.2458
▁accompagnati	-11.2458
▁sviluppano	-11.2461
▁vicoli	-11.2462
▁convenzioni	-11.2462
immigrazione	-11.2464
▁eccezioni	-11.2465
▁personalizza	-11.2475
▁immerso	-11.2477
▁schemi	-11.2479
▁pertinenti	-11.2479
▁chiusura	-11.2479
▁annotazioni	-11.2479
▁valorizzazione	-11.248
▁danneggiato	-11.2481
▁potenziare	-11.2482
▁informarsi	-11.2484
▁petrolio	-11.2495
▁solidità	-11.2495
▁concluso	-11.2498
▁statue	-11.2499
▁alternativa	-11.2502
▁investito	-11.2509
▁combustione	-11.2512
▁insormontabili	-11.2513
▁frenesia	-11.2513
▁Vittori	-11.2514
▁Bella	-11.2517
▁pianificata	-11.2518
▁competitiva	-11.2518
▁insaturi	-11.2518
▁tratto	-11.252
▁appare	-11.2527
autenticità	-11.2529
▁riducono	-11.253
▁crescono	-11.253
▁farfalla	-11.2531
▁straordinario	-11.2533
▁muro	-11.2533
▁fragilità	-11.2547
▁rara	-11.2549
▁infinite	-11.2551
ino	-11.2557
▁preavviso	-11.2564
▁preferiscono	-11.2565
▁vapore	-11.2565
com	-11.2566
▁curve	-11.2568
▁secolari	-11.2572
rti	-11.2576
▁veloci	-11.2579
▁esposto	-11.2584
▁sentiamo	-11.2585
▁adottate	-11.2587
▁sessione	-11.2587
▁carni	-11.2589
▁continuava	-11.2592
hanno	-11.2592
▁bassi	-11.2594
Marco	-11.2594
▁interpersonali	-11.2599
▁emozionanti	-11.2602
▁riservato	-11.2611
▁incredibilmente	-11.2616
▁customizzazione	-11.2617
▁ripresa	-11.2617
▁rivivere	-11.2618
▁seguente	-11.2619
▁Castello	-11.2622
alba	-11.2626
▁Repubblica	-11.2626
▁iniziando	-11.2629
▁lavoravano	-11.263
▁as	-11.2631
▁produttiva	-11.2632
▁tossiche	-11.2633
▁emozionata	-11.2635
▁conclusione	-11.2636
▁giapponesi	-11.2637
▁volevo	-11.2637
▁delicati	-11.2641
▁Poi	-11.2642
Quan	-11.2645
▁musicista	-11.2651
▁condivisi	-11.2651
▁muscolari	-11.2652
oceano	-11.2652
▁circostanti	-11.2653
▁spiegazione	-11.2654
▁garantita	-11.2655
▁Bernini	-11.2657
▁assunzione	-11.2657
▁raffinati	-11.2662
▁Londra	-11.2664
CSS	-11.2667
▁categorie	-11.2668
▁emergenti	-11.2669
▁presentati	-11.267
▁visitatore	-11.2673
▁Verde	-11.2676
▁sorta	-11.2679
▁detective	-11.2686
▁voler	-11.2689
▁parete	-11.2689
▁mentore	-11.2693
▁Grecia	-11.2695
▁impressione	-11.2702
▁cuochi	-11.2703
▁torri	-11.2705
▁limitato	-11.2709
▁Al	-11.271
▁viaggiatore	-11.2711
▁esclusiva	-11.2714
Giovanni	-11.2717
▁carbonio	-11.272
▁sentenza	-11.2722
immaginazione	-11.2723
▁formula	-11.2724
disporre	-11.2728
▁razionali	-11.2732
abitudine	-11.2732
informatica	-11.2737
▁convivenza	-11.2738
▁energica	-11.274
▁sbagliato	-11.2742
▁irrigazione	-11.2745
▁aspettando	-11.2746
▁contengono	-11.2748
▁imprevisto	-11.2751
▁segnale	-11.2753
▁talenti	-11.2757
▁Formula	-11.2759
▁unita	-11.276
▁macchie	-11.2768
▁anti	-11.277
▁finalità	-11.2773
▁margherita	-11.2773
▁mostrando	-11.278
▁testimoni	-11.2781
▁nato	-11.2787
▁volto	-11.2792
▁salire	-11.2795
utilità	-11.2795
▁percorrere	-11.2797
▁implementazione	-11.2809
▁virus	-11.281
▁router	-11.2819
▁avversari	-11.282
▁considerano	-11.2821
▁Fontana	-11.2827
▁stretta	-11.2827
▁titoli	-11.2827
▁iscriversi	-11.2828
▁crimine	-11.2828
▁adattano	-11.2828
▁condizionata	-11.2832
▁trovata	-11.284
adattamento	-11.284
▁trovando	-11.2841
▁trascorse	-11.2842
▁gesti	-11.2845
▁morale	-11.2845
▁severe	-11.2846
▁estrarre	-11.2848
▁fan	-11.2849
▁conserva	-11.2852
▁densa	-11.2854
▁influenzati	-11.287
▁rilassamento	-11.2879
▁cavallo	-11.288
▁cognitive	-11.2881
▁ghiaccio	-11.2881
▁medi	-11.2886
▁by	-11.2894
▁tanti	-11.2894
▁drink	-11.2897
▁ottimizza	-11.2903
▁bagagli	-11.2904
▁circondat	-11.2904
fase	-11.2913
▁principalmente	-11.2915
▁stia	-11.2917
▁patch	-11.2917
▁protetti	-11.2918
▁guidati	-11.2918
▁incantata	-11.2918
▁esatta	-11.292
▁chiedeva	-11.2925
▁maiale	-11.2926
▁riempie	-11.2929
▁invito	-11.293
▁costumi	-11.2932
▁diminuzione	-11.2932
▁nutrizionista	-11.2933
▁televisione	-11.2933
▁gratuita	-11.2933
▁guasto	-11.2934
▁atleta	-11.2936
▁farà	-11.2939
▁applica	-11.2946
▁allegria	-11.2946
▁cotto	-11.295
▁saltare	-11.2958
▁vicine	-11.2968
▁buffet	-11.2968
▁pietanze	-11.2969
▁cinese	-11.2969
▁regolarità	-11.2969
▁convertire	-11.2974
autenticazione	-11.2974
▁prenders	-11.2977
▁mattutina	-11.2987
▁possedere	-11.2987
infrastruttura	-11.2988
▁costruisce	-11.2989
▁studiando	-11.2992
▁attirando	-11.2998
loro	-11.2999
▁amministratore	-11.2999
▁purezza	-11.3004
▁Vorre	-11.3011
inserimento	-11.3013
▁ecosistema	-11.3013
▁lucida	-11.302
▁assaggiato	-11.3024
▁useEffect	-11.3026
▁motivato	-11.3029
▁trovavano	-11.3035
▁previsioni	-11.3041
▁raccomandazioni	-11.3041
▁Brera	-11.3047
▁salvato	-11.3048
▁risparmi	-11.3052
▁criticità	-11.3059
▁impegnativo	-11.306
▁abbraccio	-11.3061
▁destinato	-11.3063
▁ulteriore	-11.3064
▁stakeholder	-11.3074
▁sposarsi	-11.3077
▁parere	-11.3083
▁James	-11.3086
▁15	-11.3086
▁concentrato	-11.3088
▁ottimizzando	-11.3089
▁cercavano	-11.3095
▁impeccabile	-11.3096
▁giornaliera	-11.3096
▁biciclette	-11.3097
▁particelle	-11.3098
▁architettonici	-11.3098
▁fredda	-11.3099
▁appassionata	-11.3102
▁metropoli	-11.311
▁largo	-11.311
▁basta	-11.3112
▁caching	-11.3113
▁salvaguardare	-11.3114
▁barriera	-11.3114
▁decisivo	-11.3114
▁automatizzare	-11.3114
▁adattabile	-11.3115
▁violazione	-11.3115
▁tasso	-11.3116
▁agilità	-11.3121
▁traduce	-11.3123
▁genuinità	-11.3131
▁tentativo	-11.3131
▁profitti	-11.3132
▁goderc	-11.3134
▁emotive	-11.3141
▁pagato	-11.3142
▁riservate	-11.3147
▁attendono	-11.3149
▁puntuale	-11.315
▁celebrazioni	-11.3151
▁attesta	-11.3154
▁inviato	-11.3155
▁bevanda	-11.3168
▁correzione	-11.3171
▁perseguire	-11.3177
escursione	-11.3177
▁entità	-11.3179
▁tariffa	-11.3184
▁sorrise	-11.3186
▁focalizzarsi	-11.3186
▁orario	-11.3189
▁interrompere	-11.3189
▁genitore	-11.3192
▁costruite	-11.3197
▁luminosità	-11.3204
▁pavimento	-11.3205
Toscana	-11.3205
▁stella	-11.3206
)?'	-11.3206
▁possiede	-11.3207
▁cutanee	-11.3207
salmone	-11.3209
BLE	-11.3211
▁Signor	-11.322
▁moltitudine	-11.3222
▁drasticamente	-11.3222
▁frequentemente	-11.3223
▁autonoma	-11.3224
▁sacro	-11.3225
▁conducente	-11.3225
▁calendario	-11.3225
▁dettagliati	-11.3228
▁elaborate	-11.3232
▁terrestre	-11.3242
▁accettato	-11.3243
▁mantenersi	-11.3244
▁indagare	-11.3246
▁acquisti	-11.3251
▁esprimono	-11.326
▁fallire	-11.326
▁promuove	-11.326
▁rinomata	-11.3261
▁contrasto	-11.3261
▁ottenne	-11.3263
▁approfittare	-11.3264
▁Mike	-11.3264
▁borgo	-11.3268
▁ammirazione	-11.3271
▁accadde	-11.3278
emergenza	-11.3284
▁Bergamo	-11.3285
▁immerger	-11.3288
arena	-11.3289
▁parlava	-11.3294
▁evidente	-11.3294
▁avvenuto	-11.3305
▁piogge	-11.3316
▁frequentare	-11.3319
▁incontrate	-11.3331
▁confuso	-11.3341
▁tante	-11.3344
▁articolata	-11.3357
▁robusto	-11.3358
▁caricare	-11.3358
dagli	-11.3365
▁unicità	-11.337
▁coinvolgimento	-11.3371
▁garanzia	-11.3371
▁metallo	-11.3371
▁sostituito	-11.3372
▁reato	-11.3373
▁preoccupato	-11.3375
▁dieci	-11.3376
▁vedono	-11.3377
Piazza	-11.3379
▁codici	-11.3383
Esist	-11.339
▁pittore	-11.3391
▁chiudere	-11.3396
▁intensamente	-11.3412
▁staccare	-11.3413
▁ambiguità	-11.3414
source	-11.3415
▁pressioni	-11.3416
erano	-11.3428
▁riavviare	-11.3429
▁allenamenti	-11.343
▁operativa	-11.3432
Sophia	-11.3433
▁nasce	-11.3433
▁pericolosi	-11.3434
▁riga	-11.3436
▁scambi	-11.3436
▁viaggia	-11.3437
▁viste	-11.3438
enza	-11.3441
agriturismo	-11.3441
▁JPEG	-11.3443
▁be	-11.3444
▁Web	-11.3446
▁secolare	-11.3448
▁pista	-11.345
▁intellettuale	-11.3452
▁rami	-11.3454
▁minimi	-11.3456
ingegneria	-11.3461
▁generali	-11.3461
invio	-11.3461
▁affari	-11.3465
▁candidati	-11.3467
▁compilato	-11.3476
▁5	-11.3477
Bisogna	-11.3482
▁suscitat	-11.3483
▁passati	-11.3483
▁condivide	-11.3483
▁sfaccettature	-11.3484
▁adottando	-11.3485
▁annunciato	-11.3486
▁considerevole	-11.3486
▁coppie	-11.3487
▁Via	-11.3488
▁contare	-11.3489
▁valutazioni	-11.3494
▁unità	-11.3495
▁misurare	-11.3495
▁domenica	-11.3495
▁chiaramente	-11.3496
▁RAM	-11.3506
▁millenaria	-11.3507
▁accompagnare	-11.3514
▁rilevanza	-11.3521
▁nostalgia	-11.3521
▁spostarsi	-11.3522
stiamo	-11.3523
▁abbandonato	-11.3523
▁tramandate	-11.3525
▁conquiste	-11.3528
▁fermare	-11.353
▁colpite	-11.3532
▁Apostolico	-11.3532
▁curva	-11.3535
▁bottiglia	-11.3541
▁innevate	-11.3542
▁minuto	-11.3543
▁dolori	-11.3545
▁successive	-11.3547
▁area	-11.3548
▁negativa	-11.3554
▁eseguite	-11.3554
accuratezza	-11.3556
▁imposte	-11.3558
▁quattro	-11.356
▁soleggiata	-11.3561
▁identificando	-11.3561
▁aiutarci	-11.3561
▁volontari	-11.3562
▁amicizie	-11.3564
▁dedicata	-11.3566
▁commettere	-11.3566
▁controllato	-11.357
▁insegnamento	-11.3572
▁virtù	-11.3578
▁mosaici	-11.358
▁impressionante	-11.3583
▁ferite	-11.3583
▁comportano	-11.3584
▁instaurare	-11.3584
▁priva	-11.3585
▁Bill	-11.3585
▁racconti	-11.3586
▁autonomi	-11.3587
▁accede	-11.3588
▁merita	-11.359
▁comincia	-11.3592
▁sette	-11.3596
▁coach	-11.3597
▁panico	-11.3598
▁premium	-11.3598
▁misteri	-11.3599
▁completata	-11.3599
▁nozioni	-11.3601
▁registrato	-11.3602
▁ottimizzata	-11.3603
▁bilancia	-11.3615
▁lineare	-11.3616
▁canale	-11.3621
▁agile	-11.3621
▁troppe	-11.3623
▁illumina	-11.3624
▁metà	-11.3625
▁barra	-11.3628
▁tazza	-11.3636
▁strapazzate	-11.3636
▁confine	-11.3638
▁andò	-11.3639
sistono	-11.3639
▁ottimismo	-11.364
▁cambiano	-11.3642
▁postale	-11.3645
▁succederà	-11.3646
▁elevati	-11.365
▁episodi	-11.365
▁ripristino	-11.3671
▁could	-11.3674
▁guarda	-11.3678
▁colpita	-11.3681
▁bancarie	-11.3681
▁informato	-11.3684
▁emissione	-11.3686
▁ricotta	-11.3693
▁dignità	-11.3693
▁cittadinanza	-11.3694
▁sconosciuto	-11.3696
io	-11.3702
▁equa	-11.3702
▁degustazione	-11.3714
▁leggibilità	-11.3714
▁riscontrato	-11.3714
▁prolungata	-11.3714
▁degustare	-11.3716
▁aiutarli	-11.3717
▁indesiderati	-11.3717
▁estera	-11.3727
▁motivati	-11.3733
▁biologici	-11.3734
▁ardua	-11.3737
▁fossili	-11.3737
▁celebra	-11.3748
▁normative	-11.3754
▁trasformazioni	-11.3755
▁personalizz	-11.376
ri	-11.3763
▁rabbia	-11.3772
▁concezione	-11.3773
▁premi	-11.3774
▁t	-11.3774
▁sorprendente	-11.3777
▁olive	-11.3778
▁strutturata	-11.3781
▁avevamo	-11.3783
▁Alcun	-11.3787
▁She	-11.3787
▁ipotesi	-11.3788
▁tasche	-11.379
▁rivoluzionando	-11.3791
▁istruttori	-11.3791
▁Pietro	-11.3793
▁nutrizione	-11.3794
▁Africa	-11.3798
▁compassione	-11.381
▁includeva	-11.3811
▁stirare	-11.3813
▁tenuta	-11.3822
▁Stato	-11.3823
▁stimoli	-11.3827
vrà	-11.3827
▁concreto	-11.3833
▁ossigeno	-11.3837
▁bug	-11.3846
▁pubblicitaria	-11.3846
▁padroneggiare	-11.3851
▁treni	-11.3854
▁Finalmente	-11.3854
▁delicate	-11.3857
▁riempiva	-11.3858
▁performante	-11.3871
antico	-11.3871
▁esigenza	-11.3884
r	-11.3884
HTML	-11.3886
▁corre	-11.3887
▁genetica	-11.3888
▁semplifica	-11.3891
▁applicata	-11.3894
▁ciascuna	-11.3897
▁cittadino	-11.3898
▁caro	-11.39
▁rallentamenti	-11.3908
dipendentemente	-11.3915
▁immediate	-11.3916
▁autobus	-11.3916
▁install	-11.3926
▁vigneti	-11.3929
▁lunghezza	-11.393
▁Di	-11.3931
▁ingegneria	-11.3934
▁robusta	-11.3935
▁report	-11.3937
▁tratti	-11.3938
▁raffreddamento	-11.3947
▁scaduto	-11.3948
▁inefficiente	-11.3951
▁accoglienza	-11.3952
▁impegnata	-11.3956
▁selezionando	-11.3958
▁SQL	-11.3958
▁Gold	-11.3958
▁ombra	-11.3961
▁lucidità	-11.3967
Ti	-11.397
▁utilizzarlo	-11.397
▁conforto	-11.397
▁IT	-11.3972
▁ingenti	-11.3973
▁coperto	-11.3973
▁tassa	-11.3976
Grazie	-11.3977
▁convivere	-11.3982
▁personalizzabil	-11.3984
▁passanti	-11.3988
▁immaginato	-11.3988
▁link	-11.3992
▁rinnovato	-11.3993
▁recano	-11.3994
▁crearono	-11.3996
▁conduce	-11.3998
▁popoli	-11.4002
▁composti	-11.4003
▁coniugale	-11.4008
▁ragionevole	-11.401
▁plasmata	-11.4011
▁soddisfatta	-11.4011
▁rari	-11.4013
▁Unica	-11.4016
▁estivi	-11.402
▁codifica	-11.4023
▁Inizialmente	-11.4023
sincronizzazione	-11.4024
▁chiarimenti	-11.4027
▁30%	-11.4028
▁Successivamente	-11.4032
▁ottima	-11.4042
▁dispiace	-11.4052
!	-11.4059
▁completezza	-11.4067
▁vigenti	-11.4067
▁fluttuazioni	-11.4067
▁tostato	-11.4069
▁licenze	-11.4073
▁speso	-11.4076
▁buone	-11.4077
▁Anna	-11.4078
▁difetti	-11.4078
▁Santo	-11.4082
▁community	-11.4087
▁concentrarmi	-11.4087
▁giornalista	-11.4087
▁allegra	-11.4089
▁piste	-11.4091
▁amministrare	-11.4092
hook	-11.4099
▁desktop	-11.4107
▁razionalità	-11.4107
▁potabile	-11.4107
▁guarire	-11.4108
▁prudente	-11.4108
▁silenziosa	-11.4109
▁CEO	-11.4109
▁20	-11.4112
▁sbagliate	-11.4112
▁eccezionali	-11.4113
▁partito	-11.4117
▁chiusa	-11.4131
▁inclusi	-11.4131
▁meccanica	-11.4132
▁developer	-11.4145
▁precoce	-11.4146
▁bandiera	-11.4148
▁scolastica	-11.4149
▁prenotato	-11.4149
▁sinistra	-11.4149
▁impegnativa	-11.415
▁creo	-11.4152
▁funzionante	-11.4154
▁artificiali	-11.4154
co	-11.4156
▁Nord	-11.4167
▁probabilmente	-11.4167
▁cattolica	-11.4168
▁risponda	-11.4169
▁genuini	-11.4171
▁avviato	-11.4171
▁cattiva	-11.4171
▁guardava	-11.4172
▁intelligenti	-11.4172
▁ottenuti	-11.4172
▁aumentano	-11.4173
▁continente	-11.4173
▁disegni	-11.4183
▁rubato	-11.4188
▁raffinato	-11.419
▁deserta	-11.419
intensità	-11.4191
Arte	-11.4192
▁Luminaria	-11.4194
Luna	-11.4196
▁protette	-11.4196
▁colloca	-11.4197
▁distanze	-11.4198
▁apparire	-11.4199
▁poteri	-11.4201
▁permetta	-11.4203
▁ciascuno	-11.4208
▁corporeo	-11.421
▁contrattuali	-11.4212
▁curiosi	-11.4212
▁affascina	-11.4214
▁memorie	-11.4219
▁API	-11.4221
▁incontrati	-11.4222
▁rovina	-11.4226
▁tuttavia	-11.4228
▁croccante	-11.4229
importo	-11.423
▁sofisticati	-11.4231
▁sottile	-11.4231
▁conquistato	-11.4235
▁svantaggi	-11.4238
insegnamento	-11.4254
▁maestosa	-11.4255
▁Model	-11.426
▁impegnati	-11.426
▁richiedendo	-11.4261
▁creativi	-11.4264
▁filtraggio	-11.4269
▁statunitense	-11.427
▁trekking	-11.427
▁filtro	-11.4273
empatia	-11.4275
▁strategici	-11.4279
▁vette	-11.4282
▁utilizzava	-11.4287
▁sabato	-11.4289
Cappella	-11.4289
▁affascinato	-11.4294
▁secondi	-11.4298
▁connesso	-11.4298
▁best	-11.4314
▁aiuti	-11.4315
conf	-11.4319
▁usato	-11.4323
▁diete	-11.4323
▁Mia	-11.4323
▁new	-11.4328
▁isolato	-11.4332
▁atmosferica	-11.4332
▁carenze	-11.4333
▁facciate	-11.4337
▁ricevuta	-11.4338
▁bel	-11.434
▁introspezione	-11.4342
▁Green	-11.4342
▁Dipartimento	-11.4349
▁ottenendo	-11.4351
▁sottoscrizione	-11.4352
▁prurito	-11.4352
▁contadini	-11.4353
▁rappresentativi	-11.4353
▁fondamento	-11.4359
▁lavor	-11.4363
▁ripensare	-11.4373
▁impatti	-11.4384
▁ruoli	-11.4385
▁pelmeni	-11.4392
▁attese	-11.4393
▁evocare	-11.4394
▁brillante	-11.4396
▁lealtà	-11.4397
il	-11.4407
▁consumi	-11.4409
▁arricchito	-11.4414
▁scientifico	-11.442
▁picnic	-11.4433
▁climatica	-11.4434
▁industrie	-11.4435
▁esistente	-11.4435
▁fondevano	-11.4437
▁timore	-11.4442
▁filtra	-11.445
correre	-11.4452
▁sperava	-11.4455
▁cacciatori	-11.4457
▁Einstein	-11.4457
▁arricchisce	-11.4457
▁attivato	-11.4457
▁costiere	-11.4467
ppure	-11.4469
▁minimizza	-11.4473
▁combinare	-11.4473
▁sognava	-11.4475
▁intenzioni	-11.4478
▁seduti	-11.4479
▁umidità	-11.4487
▁spettacolari	-11.4489
▁from	-11.4496
▁attivi	-11.4497
▁pacco	-11.4499
▁ricordando	-11.4506
▁api	-11.4512
▁ritenut	-11.4516
▁esplora	-11.4516
▁puntualità	-11.4517
▁consuetudini	-11.4517
▁Basilica	-11.4526
autobus	-11.4527
▁informare	-11.4528
▁apprezzate	-11.4534
▁Fortunatamente	-11.4541
intesa	-11.4541
▁compromessa	-11.4541
▁gusta	-11.4541
▁trasformando	-11.4543
▁campione	-11.4543
▁scatenare	-11.4545
▁avanzare	-11.4552
▁certi	-11.4554
durre	-11.4556
▁autorizzazione	-11.4557
▁would	-11.4559
▁snorkeling	-11.4559
▁crepuscolo	-11.4559
▁performanti	-11.456
▁7	-11.4561
▁morbidezza	-11.458
▁fontana	-11.4581
▁frustrante	-11.4581
▁compongono	-11.4582
▁ammirando	-11.4583
▁memorizzati	-11.4583
▁domestici	-11.4585
▁riparo	-11.4585
▁sedia	-11.4596
▁principe	-11.4601
▁colture	-11.4602
▁biscotti	-11.4602
▁memorizzazione	-11.4602
▁regista	-11.4606
ER	-11.4615
▁enorme	-11.4621
▁superficiale	-11.4626
▁definiti	-11.463
▁more	-11.4632
alloggio	-11.4634
▁contempo	-11.4638
▁averlo	-11.4641
▁estendere	-11.4642
▁XX	-11.4643
▁riprodurre	-11.4644
▁restauro	-11.4645
▁Not	-11.4645
▁proteggersi	-11.4645
▁interpretazioni	-11.4646
▁preventive	-11.4646
▁espandere	-11.465
▁soffrire	-11.4651
▁induce	-11.4657
▁piene	-11.4658
▁vorrei	-11.4665
▁volumi	-11.4666
▁realistico	-11.4666
▁urgenti	-11.4672
▁afferma	-11.4672
▁installati	-11.4675
▁troppi	-11.4684
▁probiotici	-11.4686
▁risalto	-11.4687
▁Bob	-11.4687
▁vulnerabili	-11.469
▁cronico	-11.4692
▁ferita	-11.4693
▁rifletteva	-11.4693
▁guidate	-11.4697
▁Airbnb	-11.4698
▁voglio	-11.4706
▁avvicina	-11.4707
▁nozze	-11.4708
▁but	-11.4709
▁rimozione	-11.471
▁caratteristico	-11.4721
▁vecchie	-11.4723
▁agevole	-11.4728
▁rocciose	-11.473
▁intero	-11.4735
▁maturare	-11.4735
▁fuga	-11.4735
▁ispirando	-11.4739
intenzione	-11.4741
TE	-11.4748
▁Anime	-11.4751
▁dovre	-11.4752
▁indispensabili	-11.4754
▁preoccupata	-11.4754
▁cuocere	-11.4755
Kaito	-11.4757
▁pesi	-11.4757
▁allenatore	-11.4758
▁Barolo	-11.4759
▁serate	-11.4763
acquisizione	-11.4763
temporaneamente	-11.4764
▁vedo	-11.4774
espansione	-11.4786
▁sequenza	-11.4793
▁inserito	-11.4794
▁carote	-11.4796
▁rispettano	-11.4797
▁programmare	-11.4798
React	-11.4804
▁panettone	-11.4807
▁aperte	-11.4807
▁log	-11.481
▁splendore	-11.4815
▁benefiche	-11.4815
▁comandante	-11.4816
▁eccellenti	-11.4817
assenza	-11.4817
Sarah	-11.4821
▁separare	-11.4824
se	-11.4836
▁Jenkins	-11.4836
▁ambizioso	-11.4839
▁determinate	-11.4842
▁artistici	-11.4846
▁esteri	-11.4853
▁convenienti	-11.4855
▁-	-11.4859
▁diffonde	-11.4859
▁certificazione	-11.486
▁set	-11.4861
▁trattata	-11.4863
▁firma	-11.4865
▁sperare	-11.4875
▁eravamo	-11.4883
▁pari	-11.4887
▁offra	-11.489
▁aiutavano	-11.4891
▁adeguati	-11.4892
▁is	-11.4892
▁attirato	-11.4893
▁lubrificazione	-11.4901
▁assistito	-11.4902
▁inimitabile	-11.4902
▁soffusa	-11.4902
do	-11.4904
▁Greenfield	-11.4904
▁templi	-11.4905
▁grafici	-11.4906
▁decorate	-11.4906
▁prenotazioni	-11.4907
▁Nuova	-11.4909
▁stabiliti	-11.4909
▁impresa	-11.491
▁intemperie	-11.4923
▁accogliere	-11.4923
▁resort	-11.4923
▁morbido	-11.4925
▁camminando	-11.4925
▁Willowdale	-11.4925
▁sacrificare	-11.4926
WE	-11.4928
▁straniere	-11.4931
▁fornitura	-11.4945
animale	-11.4949
▁filtri	-11.495
▁were	-11.4951
curriculum	-11.4953
▁verifiche	-11.4955
BSI	-11.4955
▁partnership	-11.4963
▁adattabilità	-11.4963
▁statistiche	-11.4967
▁peggiorare	-11.4968
▁comunica	-11.4968
▁religioso	-11.4969
▁bloccato	-11.497
▁vivente	-11.4975
▁alterar	-11.4986
▁Hat	-11.4988
▁idriche	-11.4989
▁generosità	-11.4989
▁vizioso	-11.4989
▁scritti	-11.4989
▁esigenti	-11.4992
▁trascorreva	-11.4992
▁religiosa	-11.4992
Negli	-11.4993
▁virtualenv	-11.4993
▁esclusive	-11.4994
▁qual	-11.4997
agente	-11.4998
▁cotta	-11.5002
▁coinvolta	-11.5002
ra	-11.5003
▁superiori	-11.5012
▁stanze	-11.5012
▁arricchita	-11.5013
▁genuina	-11.5014
▁scoprirono	-11.5015
▁ucraini	-11.5015
▁superano	-11.5023
▁impiego	-11.5026
!"	-11.5029
▁arti	-11.5031
▁terrorismo	-11.5033
▁terminale	-11.5038
▁gustoso	-11.5041
America	-11.5043
▁minor	-11.505
▁look	-11.5051
▁Inc	-11.5052
▁resilienza	-11.5055
▁scorreva	-11.5055
▁abitazioni	-11.5056
▁sopraffatto	-11.5057
▁Berlino	-11.5059
▁rumori	-11.5063
▁50	-11.5068
IT	-11.5069
▁mirato	-11.5069
▁kernel	-11.5077
▁turbine	-11.5079
▁omaggio	-11.5083
▁individualità	-11.5083
▁urbane	-11.5086
Maya	-11.5089
incremento	-11.5091
▁spazzatura	-11.5099
▁densità	-11.5099
▁raccoglie	-11.51
▁ambiziosi	-11.5101
▁superficiali	-11.5101
▁alloggi	-11.5103
▁riserve	-11.5107
▁sezioni	-11.511
▁regolano	-11.5114
▁suscitare	-11.5117
▁polo	-11.5117
framework	-11.512
▁andava	-11.5121
▁campanile	-11.5122
▁pacifico	-11.5123
▁barocca	-11.5123
▁burocratici	-11.5123
▁Scopri	-11.5124
▁suggestivi	-11.5127
▁appropriati	-11.5129
▁finanza	-11.5136
▁gloria	-11.5144
▁socializzare	-11.5145
▁processati	-11.5146
▁they	-11.5147
▁griglia	-11.515
▁appunti	-11.5161
▁intuizione	-11.5163
Asinara	-11.5163
▁sviluppati	-11.5165
▁tiepida	-11.5167
▁riconosciuto	-11.5167
▁perduto	-11.5172
▁All	-11.5182
▁trasmette	-11.5183
▁release	-11.5188
▁reliquia	-11.5188
▁biscotto	-11.5189
▁vergine	-11.5191
▁sistematico	-11.5192
▁percepisce	-11.5193
▁incontaminato	-11.5193
▁applicate	-11.52
▁organizza	-11.5204
▁rischiato	-11.5204
▁identificazione	-11.521
▁progredire	-11.5211
▁terapie	-11.5213
▁orologio	-11.5217
▁completamento	-11.5219
▁lontane	-11.5225
▁tattiche	-11.5233
▁rilievo	-11.5233
▁mensili	-11.5235
▁preferisce	-11.5236
▁direttive	-11.5236
▁conoscono	-11.5238
▁compatibili	-11.5245
▁legali	-11.5247
▁Madrid	-11.5252
osservazione	-11.5254
▁cammina	-11.5255
▁stabili	-11.5255
▁redditività	-11.5256
▁governative	-11.5258
▁seguono	-11.526
▁costoso	-11.5263
▁debug	-11.5278
▁drastiche	-11.5278
▁leggermente	-11.5279
▁misteriosa	-11.528
▁pronte	-11.5281
▁Side	-11.5284
▁universitaria	-11.5286
▁scorrere	-11.5293
▁camino	-11.5301
▁manufatti	-11.5301
▁dimora	-11.5302
▁artigianale	-11.5303
▁procura	-11.5304
▁condimento	-11.5304
3	-11.5304
▁elettrico	-11.5306
▁stradali	-11.5306
▁agisce	-11.5308
▁III	-11.5309
▁avvolt	-11.5319
▁magnificenza	-11.5323
▁prontezza	-11.5324
▁trasferirsi	-11.5324
▁ricominciare	-11.5325
▁consumato	-11.5342
▁minore	-11.5342
ch	-11.5342
▁improvviso	-11.5343
ly	-11.5347
▁americani	-11.5352
▁lavoriamo	-11.5354
▁bilanciato	-11.5356
▁invitati	-11.5357
▁cauto	-11.5357
▁identifica	-11.5364
▁Voglio	-11.5368
▁manutenibilità	-11.5369
autrice	-11.5369
▁immersione	-11.5369
▁corte	-11.537
▁frontiere	-11.537
▁rimasti	-11.5374
er	-11.5387
▁creavano	-11.539
allocazione	-11.5392
▁chirurgico	-11.5393
▁alleviar	-11.5393
▁continue	-11.5399
▁Valletta	-11.5407
▁Barcellona	-11.5409
▁lotte	-11.541
▁logistica	-11.5417
▁diario	-11.5417
AN	-11.5422
atto	-11.5425
Sardegna	-11.5432
▁stabilite	-11.5436
▁minuziosa	-11.5437
▁soffice	-11.5438
▁ridotta	-11.5441
▁ritrova	-11.5441
▁giornale	-11.5441
▁alleato	-11.5445
▁aglio	-11.5458
▁insidie	-11.5462
▁psichica	-11.5462
▁vaso	-11.5463
▁guasti	-11.5463
▁corrette	-11.5465
▁silenzioso	-11.5466
▁ambito	-11.5469
▁lontani	-11.547
▁esserci	-11.5472
▁saporiti	-11.5472
▁effettua	-11.5473
▁colpo	-11.5473
▁assegnato	-11.5474
▁raccontando	-11.5475
▁erge	-11.5479
▁impronta	-11.5479
▁taxi	-11.548
▁Siracusa	-11.5482
▁operare	-11.5485
immersione	-11.5485
▁prosciutto	-11.5487
▁cerimonie	-11.5488
▁chiedo	-11.5495
▁Excel	-11.5499
divorzio	-11.5501
▁ReplaySubject	-11.5502
▁cotone	-11.5507
▁profumate	-11.5512
▁dotati	-11.5513
▁Unito	-11.5515
rebbe	-11.5523
illusione	-11.5526
Cinque	-11.5529
▁onesto	-11.5532
▁sopraffatti	-11.5533
▁provocato	-11.5535
▁sottili	-11.5535
▁definite	-11.5543
na	-11.5543
▁identificato	-11.5545
▁passeggiava	-11.5546
▁oliva	-11.5552
▁tribunale	-11.5554
▁promise	-11.5556
▁comunicato	-11.5556
API	-11.5556
▁liquido	-11.5556
▁assumere	-11.5563
▁svolte	-11.5569
▁individua	-11.5572
▁larga	-11.5577
▁soffiava	-11.5578
▁strana	-11.5579
▁controversie	-11.5582
Scoprire	-11.5583
▁sostenendo	-11.5593
▁inclusivo	-11.5601
▁intricati	-11.5605
▁coinvolgendo	-11.5606
mail	-11.5616
▁confermato	-11.5617
▁risolutezza	-11.5623
▁lentezza	-11.5624
▁venerdì	-11.5625
▁richiedevano	-11.5625
▁USA	-11.5626
UE	-11.5626
▁distinzione	-11.5626
▁evoluta	-11.5628
▁molla	-11.5629
▁università	-11.5629
▁architetti	-11.563
▁funzionava	-11.5631
▁conosciuti	-11.5633
▁like	-11.5634
▁turistico	-11.5634
▁estendono	-11.5639
▁approfonditi	-11.5646
▁collettività	-11.5647
▁esaminando	-11.5647
ispirazione	-11.5649
indipendenza	-11.565
▁realizza	-11.5653
▁liberare	-11.5653
▁osservando	-11.5656
▁Corte	-11.5657
▁Rodriguez	-11.567
▁comprendendo	-11.567
▁contribuenti	-11.5672
▁investendo	-11.5672
▁city	-11.5673
▁rinnova	-11.5674
▁Legge	-11.5678
▁orgogliosi	-11.5684
▁realizzate	-11.5688
▁tappe	-11.5691
▁energetiche	-11.5694
▁frustrato	-11.5695
▁pesanti	-11.5695
▁semplificando	-11.5697
▁avvenire	-11.5698
▁presentò	-11.57
▁limita	-11.5702
▁pulite	-11.5706
▁malato	-11.5713
▁longevità	-11.5717
▁ripieni	-11.5719
▁Teatro	-11.5721
▁minori	-11.5721
▁furo	-11.5722
▁africano	-11.5722
▁Medici	-11.5723
▁complessivo	-11.5725
disposto	-11.5727
▁mentali	-11.5731
;	-11.5731
▁Re	-11.5733
iblioteca	-11.5739
▁collegamenti	-11.5742
▁caotica	-11.5742
▁misurabili	-11.5742
▁perplessità	-11.5743
▁osservazione	-11.5744
▁strega	-11.5761
▁dovute	-11.5764
▁editor	-11.5764
▁evoca	-11.5765
▁matrimoniale	-11.5766
▁idonea	-11.5767
▁attrezzata	-11.5768
impianto	-11.577
▁preoccupati	-11.5771
▁privati	-11.5772
▁Torre	-11.5777
▁dedica	-11.5777
▁caratterizzano	-11.5778
▁inverno	-11.578
▁moto	-11.5781
▁aggiorna	-11.5789
▁preghiera	-11.5789
▁rivista	-11.579
▁singolo	-11.5792
▁SSL	-11.5792
impero	-11.58
▁bagaglio	-11.5802
un	-11.5802
▁preparano	-11.5809
ia	-11.5809
▁host	-11.5811
▁integrate	-11.5813
Vive	-11.5813
▁teneva	-11.5814
▁cresciuta	-11.5814
▁acquisite	-11.5815
▁campionato	-11.5816
invecchiamento	-11.5819
alta	-11.582
▁adattato	-11.5823
▁filtrare	-11.5825
▁ortaggi	-11.583
▁evolvere	-11.5836
▁riabilitazione	-11.5839
Crear	-11.584
▁attirar	-11.5842
Esplorare	-11.5842
▁gustosa	-11.5843
▁agito	-11.5845
▁contento	-11.5848
▁braccia	-11.5857
▁fornir	-11.5858
▁muoveva	-11.5858
▁Tommy	-11.5858
▁sollievo	-11.586
▁producono	-11.586
▁culto	-11.586
▁enormi	-11.5861
▁eleganti	-11.5863
▁cerchiamo	-11.5864
▁confrontar	-11.5872
▁cade	-11.5874
▁immersi	-11.588
▁Palatino	-11.5882
italiano	-11.5882
▁muovevano	-11.589
▁manuali	-11.5891
▁marini	-11.5895
ndosi	-11.5897
▁sapevano	-11.5898
▁ricompensa	-11.5903
▁incompatibilità	-11.5909
▁ravioli	-11.5909
▁molecole	-11.5909
▁ballare	-11.591
▁pianeti	-11.5915
▁trasformata	-11.5918
▁fondatore	-11.5918
▁Javascript	-11.5918
▁verificando	-11.5919
▁preferite	-11.5922
TB	-11.593
▁bianchi	-11.593
▁sistemazione	-11.5931
▁maestosità	-11.5932
▁sposi	-11.5933
▁conferenze	-11.5936
attacco	-11.5939
▁infrangono	-11.5942
▁adattarl	-11.5947
▁insegnare	-11.5947
TEAM	-11.5955
▁notando	-11.5956
▁bowling	-11.5957
▁biologia	-11.5958
▁divertenti	-11.5959
▁liberarsi	-11.5959
▁melodie	-11.5959
▁sconosciuti	-11.596
▁decisiva	-11.596
▁testimoniano	-11.5961
▁rotto	-11.5963
amministratore	-11.5964
▁gode	-11.5964
▁assegnare	-11.5965
▁ascoltò	-11.5966
▁quest	-11.597
▁ordinare	-11.597
▁gettato	-11.5971
ntirsi	-11.5978
▁inclinazioni	-11.5981
▁dichiarato	-11.5982
ALL	-11.5984
▁festeggiare	-11.5984
▁danneggiata	-11.5985
▁impegnative	-11.5986
antichità	-11.5987
▁interessata	-11.5991
▁attesi	-11.5992
▁rappresentavano	-11.5994
▁tengono	-11.5998
▁fragranza	-11.6005
▁insignificanti	-11.6005
▁rigenerante	-11.6006
▁criminale	-11.6008
▁interazione	-11.6009
▁danneggiati	-11.601
▁estremi	-11.6012
▁uniti	-11.6012
▁fondazione	-11.6014
▁Putin	-11.6016
▁invia	-11.6017
▁costiera	-11.6018
editor	-11.6019
▁dischi	-11.6022
▁America	-11.6023
vengano	-11.6025
▁programmato	-11.6027
▁intima	-11.6028
▁Zelanda	-11.6029
▁terremoto	-11.6029
▁fondente	-11.6032
▁sciogliere	-11.6034
▁sinonim	-11.6037
▁esauriente	-11.6038
▁concentrati	-11.6039
▁anziana	-11.6043
abito	-11.6047
▁saggi	-11.605
▁jogging	-11.6053
▁stagionali	-11.6054
▁elenco	-11.6055
▁Paesi	-11.6062
▁scelti	-11.6063
▁amiche	-11.6064
▁pubblicitarie	-11.6067
Secondo	-11.6068
▁Noodi	-11.6069
▁permanenza	-11.6079
▁tattica	-11.6079
▁richiamo	-11.6082
▁Lui	-11.6082
▁raggiungono	-11.6083
▁araba	-11.6084
▁priv	-11.6088
▁straordinarie	-11.6096
▁dividere	-11.6101
Tutto	-11.6101
▁agricoltori	-11.6103
▁raggiungerli	-11.6106
▁prendeva	-11.6106
entusiasmo	-11.6106
▁etiche	-11.6107
▁concisa	-11.6108
▁XVIII	-11.6109
▁date	-11.611
Serve	-11.6113
▁messe	-11.6113
Solo	-11.6116
▁interprete	-11.6121
▁Penso	-11.6122
▁nascondono	-11.6127
Nei	-11.6128
▁zuccherate	-11.6129
▁riciclo	-11.6129
▁castelli	-11.613
▁batteri	-11.613
▁ripartire	-11.613
▁testimone	-11.613
▁Svizzera	-11.6134
▁interattiva	-11.6135
Utilizzando	-11.6135
▁saporito	-11.615
▁scrivania	-11.6152
▁contrastanti	-11.6152
▁mansioni	-11.6152
▁sardine	-11.6152
▁rinfrescante	-11.6152
▁psicologico	-11.6153
▁rare	-11.6154
Jack	-11.6156
▁Regno	-11.6161
▁automobile	-11.6165
▁soddisfa	-11.6176
▁precedenza	-11.6176
▁gotica	-11.6177
▁corrosione	-11.6178
▁Raffaello	-11.6178
▁fantastico	-11.6178
▁merito	-11.6178
▁esposizioni	-11.6179
▁facciamo	-11.618
▁nemici	-11.6181
▁individuato	-11.6183
▁Costa	-11.6184
▁visibili	-11.6187
ambito	-11.6194
Università	-11.62
▁ricorso	-11.6202
▁David	-11.6203
▁camminata	-11.6206
▁contorno	-11.6207
abbigliamento	-11.6208
▁tradotto	-11.6208
All	-11.6209
▁gioie	-11.621
▁uscito	-11.6211
▁incarna	-11.6214
▁studiate	-11.6217
tà	-11.6221
▁parcheggi	-11.6225
▁Boot	-11.6226
▁permanente	-11.6227
▁percepito	-11.6227
▁giornaliere	-11.623
Smith	-11.6236
▁lasciava	-11.6239
▁esclusivo	-11.624
autunno	-11.624
▁With	-11.6241
▁provincia	-11.6243
▁100	-11.6247
▁tragitto	-11.6251
▁leggerezza	-11.6252
▁scenari	-11.6252
▁matematici	-11.6254
▁ostacolare	-11.6256
▁misto	-11.6257
▁colpiti	-11.6261
▁crocevia	-11.6275
▁ciclismo	-11.6275
▁carbonica	-11.6276
▁metodologie	-11.6277
▁consultazione	-11.6277
▁ricevono	-11.6278
autorità	-11.6278
▁alghe	-11.6278
▁finita	-11.6287
▁rassicurante	-11.6301
▁finanziamenti	-11.6302
▁cresciuto	-11.6302
▁definiscono	-11.6303
▁risolti	-11.6307
▁turista	-11.6308
▁inaspettata	-11.631
▁filosofi	-11.6314
▁pizzico	-11.6315
▁riservata	-11.6316
▁integrati	-11.6316
▁trattate	-11.6324
▁professione	-11.6326
▁collaboratori	-11.6326
▁funzionario	-11.6327
▁trascurato	-11.6328
▁chiamò	-11.6329
▁Barbaresco	-11.6331
▁onore	-11.6337
.000	-11.6344
sposto	-11.6344
▁sedette	-11.6349
▁entusiasti	-11.6349
▁polinsaturi	-11.6351
▁vaniglia	-11.6351
▁triste	-11.6352
▁soddisfano	-11.6357
▁rivelando	-11.636
▁impiegare	-11.6363
Consente	-11.6369
Scopri	-11.637
▁gatti	-11.6373
▁giù	-11.6376
▁piaceva	-11.6377
▁insicurezze	-11.6377
▁anticipare	-11.6378
▁faticosa	-11.638
▁concerti	-11.6382
▁distrarre	-11.6383
▁articolati	-11.6383
▁costituiscono	-11.6383
▁instabilità	-11.6386
zzazione	-11.6391
▁ansietà	-11.6394
nto	-11.6395
▁lettere	-11.6398
▁spiegando	-11.6398
▁curata	-11.6399
▁improvvisa	-11.64
▁indipendenti	-11.64
▁genovese	-11.6402
▁25	-11.6403
▁check	-11.6404
▁avvia	-11.6405
▁vela	-11.6405
▁prendiamo	-11.6405
▁portale	-11.6415
▁dona	-11.6416
▁sensibilizzar	-11.6416
▁funzionari	-11.6417
▁Volterra	-11.6419
▁insostenibile	-11.6421
▁convinti	-11.6421
▁laboratori	-11.6425
▁addetti	-11.6427
▁trasmesso	-11.6429
▁collegamento	-11.6429
▁dorato	-11.6432
▁ritrovo	-11.6436
▁preme	-11.6441
▁task	-11.6448
▁disposte	-11.6449
▁food	-11.645
▁giocava	-11.6452
▁distorta	-11.6453
▁avanzamento	-11.6454
▁remote	-11.6458
▁speranze	-11.646
▁organi	-11.646
▁tappa	-11.6461
▁sospetto	-11.6474
MI	-11.6476
▁mindfulness	-11.6477
▁repentaglio	-11.6477
▁fianco	-11.6477
▁acquatici	-11.6478
▁ponderata	-11.648
▁futura	-11.6482
▁agricole	-11.6483
▁invitante	-11.6483
▁aggiuntivo	-11.6484
▁evidenza	-11.6494
India	-11.6497
▁sugo	-11.6498
▁possesso	-11.6498
uguaglianza	-11.6502
▁lessico	-11.6503
▁nebbia	-11.6503
▁idratanti	-11.6504
▁penisola	-11.6504
▁ineguagliabile	-11.6504
▁intatta	-11.6505
▁scattare	-11.6507
▁globo	-11.6511
▁migliorarsi	-11.6514
▁ricchezze	-11.6515
▁sviluppate	-11.6519
▁Sud	-11.652
occupazione	-11.6521
▁fattura	-11.6526
▁poeta	-11.653
▁presenteranno	-11.6532
▁collezioni	-11.6533
▁organizzati	-11.6539
Los	-11.654
▁Sante	-11.6544
▁seguita	-11.6544
▁incapacità	-11.6553
▁smarrimento	-11.6554
▁là	-11.6555
▁aggregazione	-11.656
▁cocco	-11.6562
▁resero	-11.6566
allenatore	-11.6571
assorbimento	-11.6572
▁abile	-11.658
▁francesi	-11.6583
▁infrangeva	-11.6585
▁Ryanair	-11.6586
▁TensorFlow	-11.6587
iziò	-11.659
▁impiegata	-11.6593
SC	-11.6594
automazione	-11.6594
▁trasporta	-11.6597
▁riservati	-11.6601
▁contraddistint	-11.6604
▁evidenziat	-11.6605
▁spaghetti	-11.6606
▁salvataggio	-11.6607
▁distribuzioni	-11.6608
▁venne	-11.661
▁colpire	-11.6616
▁installate	-11.6622
interpretazione	-11.6624
▁sete	-11.6632
▁pianoforte	-11.6632
▁umida	-11.6633
▁fragole	-11.6636
▁Madre	-11.6641
▁incluse	-11.6642
Palazzo	-11.6643
▁cara	-11.6646
▁NovaTech	-11.6647
▁torneo	-11.6658
▁adeguatamente	-11.6661
▁medicinali	-11.6662
▁Fu	-11.6666
▁coda	-11.6666
▁step	-11.6677
▁scatola	-11.6684
▁Eiffel	-11.6684
▁raccomandabile	-11.6684
2	-11.6686
▁religiose	-11.6688
▁assimilare	-11.669
▁dimentica	-11.669
▁diagnosticare	-11.6692
▁maestra	-11.6692
▁disturbo	-11.6697
▁eseguiti	-11.6698
▁abbina	-11.67
▁parlano	-11.6707
▁passeggiav	-11.6712
▁associato	-11.6714
▁infine	-11.6722
▁sacrificio	-11.6729
▁deliziose	-11.673
▁estati	-11.673
▁soggiornare	-11.6737
▁nucleare	-11.6738
▁fibra	-11.6738
▁toscani	-11.674
▁appropriate	-11.6748
▁connessa	-11.6749
frontare	-11.6753
▁chiedono	-11.676
▁sopraffatta	-11.6764
▁indelebili	-11.6765
▁compagna	-11.6768
▁mille	-11.6775
▁prepar	-11.6783
Uno	-11.6785
▁descriveresti	-11.679
▁unite	-11.6791
▁Co	-11.6792
▁richiama	-11.6793
▁Giudice	-11.6794
▁giudicare	-11.6796
▁annunci	-11.6798
▁trovati	-11.6799
▁impiegate	-11.6799
▁eroe	-11.6803
▁esporre	-11.6806
▁aspettano	-11.6807
osservatore	-11.6809
nostante	-11.6809
▁errate	-11.6818
▁vado	-11.682
▁accessibilità	-11.6822
▁scansione	-11.6822
▁registrare	-11.6825
Stati	-11.6831
Conoscer	-11.6835
▁sintetico	-11.6841
▁perduta	-11.6843
▁descrizioni	-11.6843
▁genetici	-11.6843
▁adattabili	-11.6844
San	-11.6856
▁Asia	-11.6858
▁fulcro	-11.6867
▁nemmeno	-11.6867
▁suggerì	-11.6867
▁apparenze	-11.6868
▁riferisce	-11.6868
▁12	-11.6869
▁competere	-11.6869
▁occhiali	-11.6869
▁aggiungono	-11.687
▁eccessivamente	-11.6872
▁lasciarti	-11.6873
▁proteste	-11.6874
▁proveni	-11.6875
▁dimenticate	-11.688
▁consolidar	-11.6886
▁doveri	-11.6886
▁superate	-11.6887
▁fiorire	-11.6888
▁proteggendo	-11.6889
▁spazzola	-11.6889
▁ansiosa	-11.6889
▁sinfonia	-11.6896
▁storto	-11.6899
▁riuscir	-11.6904
▁rispettando	-11.6917
▁conosceva	-11.6917
▁chance	-11.6918
▁Mondiale	-11.692
▁pronuncia	-11.6921
▁graduale	-11.6921
▁limitate	-11.6922
▁intestinale	-11.6922
Scegliere	-11.6923
▁dipendeva	-11.6932
▁evolversi	-11.6932
▁Man	-11.6933
segnò	-11.6937
▁esercita	-11.6939
▁palla	-11.6942
▁giocattoli	-11.6947
cane	-11.6949
▁impegnarsi	-11.6951
▁preda	-11.6952
▁psicologica	-11.6952
▁buttato	-11.6952
▁provoca	-11.6957
▁resistenze	-11.6957
▁descritte	-11.696
enorme	-11.6961
▁avventurosa	-11.6961
▁MP	-11.6966
Città	-11.6968
▁combustibili	-11.6974
▁seta	-11.6975
Innanzitutto	-11.6978
▁lasciati	-11.6979
▁Skyscanner	-11.698
▁consegne	-11.6995
compatibile	-11.6995
avanzamento	-11.6997
▁finali	-11.6997
▁practice	-11.6997
▁riflettuto	-11.7
▁confidenziali	-11.7001
▁generalmente	-11.7001
▁manipolare	-11.7002
▁diversificato	-11.7003
▁variano	-11.7006
▁muri	-11.7006
▁accumulato	-11.7006
▁Lago	-11.7009
▁attratti	-11.7009
▁tracciare	-11.7018
Ministero	-11.7019
▁scrive	-11.7023
▁rendo	-11.7023
▁teoriche	-11.7027
▁esportazioni	-11.7028
▁arrestato	-11.7028
▁imperfezioni	-11.7029
▁piloti	-11.7029
▁nutritive	-11.7029
▁Naturale	-11.703
▁scoprono	-11.7031
▁icone	-11.7032
▁accumulare	-11.7034
▁Wi	-11.7034
▁destinata	-11.7035
▁VIII	-11.7036
▁venti	-11.7037
▁illuminate	-11.7041
▁stabilendo	-11.7048
▁Bianchi	-11.7051
▁boutique	-11.7052
▁segui	-11.7052
▁reagì	-11.7054
▁emozionato	-11.7058
▁cantare	-11.7058
▁iniziava	-11.706
▁onesta	-11.706
Esiste	-11.7067
▁Giotto	-11.7067
▁ubicat	-11.7071
▁riprese	-11.7077
▁utilità	-11.7078
zioni	-11.7079
▁adattarci	-11.7084
▁ingannare	-11.7084
▁bruciare	-11.7085
▁ampiamente	-11.7089
▁guidatore	-11.7089
▁consentiva	-11.7089
Como	-11.7091
personalizzazion	-11.7095
▁uffici	-11.7103
▁maschera	-11.7106
▁sacri	-11.7107
Riconoscer	-11.7107
interlocutore	-11.7109
UNESCO	-11.711
▁rurale	-11.7111
▁collettivo	-11.7111
▁irresistibile	-11.7114
▁sollevata	-11.7114
▁accertars	-11.7116
▁addio	-11.7116
▁economie	-11.7116
▁menta	-11.7117
▁tipiche	-11.7117
▁svolgevano	-11.7118
▁fogli	-11.7119
▁indossa	-11.713
▁geografiche	-11.7135
▁Guerra	-11.7136
▁birra	-11.7136
▁lontananza	-11.7136
▁raggiungibile	-11.7137
amatriciana	-11.7138
▁fioritura	-11.7138
▁promesso	-11.7145
▁concludere	-11.7151
▁prenderti	-11.7153
nti	-11.716
▁Ashwood	-11.7163
▁risolvono	-11.7164
▁realistici	-11.7165
▁contemplare	-11.7166
▁cavolo	-11.7168
▁maestose	-11.7168
▁apporto	-11.7173
▁1	-11.7178
▁8	-11.7187
▁Sands	-11.719
▁truppe	-11.719
▁dichiarazioni	-11.7192
▁assolutamente	-11.7193
▁voto	-11.7196
▁Lungarno	-11.7198
▁dedicate	-11.7199
▁radice	-11.7205
▁portali	-11.7212
▁trionfo	-11.7218
▁estendeva	-11.7219
▁partecipando	-11.722
▁capisce	-11.722
▁urgenza	-11.7224
▁colorato	-11.7227
▁analizzati	-11.7234
▁lasciata	-11.7239
▁maratona	-11.7245
▁status	-11.7247
▁secche	-11.7248
▁ottimista	-11.7249
▁scegli	-11.725
▁sorte	-11.7254
▁rendimento	-11.726
he	-11.726
▁sap	-11.7261
▁appariva	-11.7263
▁lato	-11.7264
rò	-11.7266
▁norma	-11.7268
ata	-11.727
▁Ricord	-11.7272
▁vincolo	-11.7274
▁tempestiva	-11.7274
▁baia	-11.7275
▁settimanale	-11.7275
▁assunto	-11.7277
▁umido	-11.728
▁fra	-11.7282
▁soffia	-11.7286
▁apprese	-11.7287
▁allarme	-11.7294
▁fattoria	-11.7294
▁canti	-11.7297
▁conservato	-11.7297
▁farmi	-11.7301
▁consistenze	-11.7303
▁ricordava	-11.7303
▁stiro	-11.7304
▁proprietaria	-11.7305
▁implementando	-11.7306
▁contrarre	-11.7308
Mario	-11.7308
▁rompere	-11.7309
Devo	-11.7321
▁Suo	-11.7325
▁slancio	-11.7328
▁evidenziando	-11.7329
▁esotici	-11.733
▁annullare	-11.733
▁visitò	-11.7331
▁ex	-11.7331
▁Pinacoteca	-11.7332
▁lipidi	-11.7332
▁privilegi	-11.7332
▁favorevoli	-11.7333
▁differenziano	-11.7336
▁urbani	-11.7342
▁inutile	-11.7352
emissione	-11.7353
Component	-11.7353
Genova	-11.7354
MVC	-11.7355
▁Sovietica	-11.7356
▁stasera	-11.7356
▁6	-11.7357
▁allergie	-11.7357
▁immers	-11.7358
▁decidono	-11.7358
▁svilupparsi	-11.736
▁supervisione	-11.736
▁regalato	-11.7366
▁espansione	-11.7366
▁snoda	-11.7368
▁penso	-11.7378
▁nutriente	-11.738
IA	-11.7382
▁sopravvento	-11.7383
▁botteghe	-11.7384
▁fiorentina	-11.7384
▁colpì	-11.7385
▁condannato	-11.7386
▁adottano	-11.7389
architetto	-11.7391
▁automatici	-11.7391
▁perdono	-11.7393
▁spostare	-11.7396
▁Madonna	-11.7401
▁affinché	-11.7403
▁rilassare	-11.7404
▁avete	-11.7404
▁rimangono	-11.7411
▁palati	-11.7413
▁adattata	-11.7422
▁incerto	-11.7425
▁medie	-11.7428
▁ricordato	-11.7429
ente	-11.7437
▁riusciamo	-11.744
▁rimandare	-11.7441
▁positivamente	-11.7446
▁bancari	-11.7446
▁originaria	-11.7448
▁condizionano	-11.7451
on	-11.7453
▁quotidiani	-11.7455
▁regali	-11.7464
▁serale	-11.7467
▁manifestanti	-11.7469
▁start	-11.747
▁fondato	-11.7473
affari	-11.7473
▁affermato	-11.7473
▁celebrato	-11.7475
▁discesa	-11.7475
▁raggiunti	-11.7481
▁passava	-11.7484
▁utilizz	-11.7491
▁indossava	-11.7492
▁sviluppi	-11.7495
▁contentezza	-11.7496
▁contenitore	-11.7497
▁cercò	-11.7498
▁meditare	-11.7498
▁sofisticato	-11.7498
▁Devo	-11.7498
▁focalizzare	-11.7514
▁vulcani	-11.7518
▁cassa	-11.752
▁maggioranza	-11.7524
▁teatrale	-11.7525
▁reliquie	-11.7525
▁inefficienze	-11.7525
▁regionali	-11.7526
▁gentili	-11.7526
▁succo	-11.7528
▁emesso	-11.753
▁sensori	-11.7533
▁SWIFT	-11.7539
▁rivolta	-11.7547
▁temporale	-11.7549
angolo	-11.755
▁umiltà	-11.7551
▁godut	-11.7551
▁endorfine	-11.7552
▁esperimenti	-11.7553
▁residui	-11.7553
▁obiettiva	-11.7553
▁raccogliendo	-11.7555
identificazione	-11.7556
▁dov	-11.7557
▁sentiti	-11.7557
▁scatenato	-11.7558
▁ballo	-11.7562
▁fermata	-11.7565
▁comunemente	-11.7571
▁militari	-11.7574
▁schiena	-11.7575
esperto	-11.7577
▁nubilato	-11.758
▁guadagno	-11.7581
▁dermatologo	-11.7581
▁problematiche	-11.7582
▁disuguaglianze	-11.7583
▁cappello	-11.7583
▁torna	-11.7584
▁sportivo	-11.7585
▁noiosa	-11.7585
▁affetto	-11.7587
▁pratico	-11.7587
▁scritte	-11.7591
email	-11.7591
▁rituali	-11.7595
▁vuota	-11.7595
▁Mellieha	-11.7602
▁rappresent	-11.7608
▁scendere	-11.7608
▁elezioni	-11.7609
▁vocabolario	-11.761
▁esaustiva	-11.7612
▁onorare	-11.7613
▁abbattere	-11.7615
▁abilitare	-11.7616
▁filtrava	-11.7616
▁vicende	-11.7617
▁persi	-11.7618
▁riportato	-11.7622
▁grasso	-11.7627
▁legna	-11.7629
▁attirava	-11.7633
▁condizionato	-11.7633
▁passaporti	-11.7634
▁Sophie	-11.7635
▁elettriche	-11.7638
▁rilassarci	-11.7638
▁estetica	-11.7638
▁trovi	-11.7639
▁freno	-11.764
▁giudicato	-11.7641
autorizzazione	-11.7643
▁prendi	-11.7643
▁Maestro	-11.7646
▁presentazioni	-11.7653
▁lasciamo	-11.7654
▁ripetizione	-11.7667
avvocato	-11.7671
▁attrezzi	-11.7674
▁travolgere	-11.7678
▁portati	-11.7686
▁cresceva	-11.7692
▁duran	-11.7695
▁500	-11.7695
▁vitello	-11.7695
▁supplementari	-11.7696
▁Chrome	-11.7697
▁diversificata	-11.7697
▁interattivo	-11.7699
▁superarle	-11.7702
▁credono	-11.7705
▁consumati	-11.7706
▁god	-11.7708
▁uve	-11.7709
▁impianto	-11.7718
▁gestendo	-11.772
▁polmoni	-11.772
▁Trevi	-11.7722
▁univoco	-11.7725
▁radioso	-11.7725
▁cantante	-11.7725
▁idoneo	-11.7726
▁maestoso	-11.7727
▁amministrative	-11.7727
▁pare	-11.7727
▁liguri	-11.7727
▁semplificazione	-11.7727
▁remota	-11.7732
▁fredde	-11.7734
▁integrata	-11.7734
▁arrivano	-11.7737
▁EcoPolis	-11.774
▁Richard	-11.7742
php	-11.7745
▁sosteneva	-11.7748
▁firmware	-11.7753
▁piovana	-11.7753
▁tedesco	-11.7753
▁tedesca	-11.7753
▁focalizzazione	-11.7754
▁tipologie	-11.7754
▁raccomand	-11.7755
▁lasciarci	-11.7756
▁vulnerabile	-11.7756
▁bianche	-11.7757
▁riavvio	-11.7757
sentirà	-11.7758
▁isolamento	-11.7759
▁però	-11.7761
▁consenta	-11.7761
▁denuncia	-11.7764
▁proveniva	-11.7765
▁usufruir	-11.7769
us	-11.7769
▁studiano	-11.7773
▁lavorino	-11.7774
▁percepita	-11.7784
▁incontrarsi	-11.7785
▁adattandosi	-11.7786
▁Universal	-11.7788
Ridurre	-11.7793
▁significati	-11.7799
▁lasci	-11.7808
▁organizzando	-11.7809
▁variazione	-11.781
▁Fuji	-11.781
▁cambierà	-11.7811
▁pregiati	-11.7812
▁compromettendo	-11.7812
▁ottengono	-11.7813
▁regionale	-11.7813
▁terza	-11.7814
▁imminente	-11.7814
▁rispondono	-11.7815
▁divorziare	-11.7815
▁fuggire	-11.7816
▁hobby	-11.7816
▁messi	-11.7821
▁concentrata	-11.7828
▁page	-11.7828
▁mattinata	-11.7832
▁skill	-11.7838
▁osservato	-11.7839
▁avvenimenti	-11.7841
▁distintivo	-11.7841
▁parametro	-11.7842
▁iscrizione	-11.7842
▁DNA	-11.7842
▁ansioso	-11.7842
▁patria	-11.7842
attesa	-11.7848
▁apporta	-11.7851
arono	-11.7857
▁ristrutturazion	-11.7857
▁guadagni	-11.786
▁offrivano	-11.7861
▁Sapev	-11.7865
▁riflettendo	-11.7866
▁garantir	-11.7868
▁unione	-11.7869
▁principianti	-11.787
▁rigoroso	-11.7871
▁stomaco	-11.7871
▁esatto	-11.7874
▁pause	-11.7874
▁correva	-11.7877
▁guadagnato	-11.7881
▁eseguendo	-11.7881
▁conosciute	-11.7885
▁visitati	-11.789
▁dipingere	-11.7899
▁proteica	-11.7899
▁biologica	-11.7899
▁sinuose	-11.79
▁golf	-11.7902
▁impianti	-11.7903
▁sedeva	-11.7904
▁motivata	-11.7905
▁inizi	-11.7913
Comprendere	-11.7915
▁rito	-11.7918
▁nessun	-11.7922
▁barche	-11.7924
Autowired	-11.7927
▁indicato	-11.793
▁osservatori	-11.793
▁noleggio	-11.7933
▁ultimamente	-11.7934
▁metodico	-11.7936
ingegnere	-11.7941
▁bei	-11.7949
▁Pe	-11.7949
▁snack	-11.7955
▁notti	-11.7955
▁acquista	-11.7961
▁sedersi	-11.7966
▁rivoluzionare	-11.7966
▁scorte	-11.7966
▁fluido	-11.7967
▁solleva	-11.7975
▁salata	-11.7975
▁solidale	-11.7977
▁rinuncia	-11.798
▁input	-11.7983
▁ragù	-11.7987
▁elaborato	-11.7989
▁scogliere	-11.7989
▁dicendo	-11.799
▁sofisticate	-11.7992
▁Anastasia	-11.7995
▁dimenticata	-11.7996
▁concreta	-11.7999
▁Porta	-11.8004
▁selezionate	-11.8009
▁partecipa	-11.801
▁ripieno	-11.8019
▁cellulari	-11.8019
▁Messico	-11.8022
▁illuminata	-11.8023
▁firmato	-11.8024
▁domestica	-11.803
malfunzionamenti	-11.8034
▁farla	-11.8035
▁Eden	-11.8036
▁panno	-11.8044
▁blogging	-11.8046
▁impedito	-11.8047
▁Quindi	-11.8047
▁operative	-11.8049
▁ruote	-11.8049
▁permettersi	-11.805
▁sintetizzare	-11.805
▁delusione	-11.8051
▁agevolare	-11.8054
▁orientale	-11.8054
▁ucraino	-11.8056
▁Australia	-11.8057
▁producendo	-11.8057
▁ricevute	-11.8066
▁indagine	-11.8069
▁Adesso	-11.8069
▁ascoltava	-11.8074
▁realized	-11.8076
▁chitarra	-11.8077
▁disfunzione	-11.8077
▁compiuto	-11.8077
▁scappare	-11.8077
▁approvato	-11.8078
▁arrese	-11.808
▁conclusa	-11.8082
▁sognare	-11.8084
alleanza	-11.8084
▁visitate	-11.8085
▁rappresentanza	-11.8086
Potresti	-11.809
▁consiglia	-11.8097
Asia	-11.8097
▁occupato	-11.8104
▁fotosintesi	-11.8106
▁frodi	-11.8107
Verificar	-11.8114
▁4	-11.8118
▁mirata	-11.812
▁raggiunta	-11.812
▁firmare	-11.8122
▁rappresentati	-11.8127
▁rispetta	-11.8128
▁letteraria	-11.8131
▁rendiamo	-11.8133
▁poss	-11.8135
▁idratante	-11.8138
▁rinomato	-11.8138
▁tramandata	-11.814
▁mari	-11.8142
▁indesiderate	-11.8142
▁combinazioni	-11.8143
Controller	-11.8148
▁aspettavano	-11.8154
▁incaricato	-11.8155
▁avversario	-11.8156
▁Chianti	-11.8168
▁arduo	-11.8168
▁vocazione	-11.8169
▁domestico	-11.817
▁onesti	-11.817
▁chiamava	-11.8174
▁Molte	-11.8181
▁esamina	-11.8181
ombrello	-11.8184
▁Turbo	-11.8186
Assicurazione	-11.819
▁M	-11.8191
▁biblioteche	-11.8196
▁protocolli	-11.8198
▁segnalare	-11.8202
▁Flash	-11.8203
▁singolare	-11.8204
▁ucraine	-11.8207
▁rispecchia	-11.8207
▁spero	-11.8209
▁tagliare	-11.8209
▁dovesse	-11.8224
▁salsiccia	-11.8227
▁discriminazione	-11.8228
▁volontariato	-11.8229
▁trattative	-11.8229
▁agosto	-11.8231
▁unanime	-11.8233
John	-11.8235
▁statale	-11.8237
▁incontrando	-11.8239
▁freddi	-11.8253
▁alberghi	-11.8255
▁integra	-11.8256
▁luglio	-11.8257
▁disposta	-11.8258
▁risolverlo	-11.8259
Valutando	-11.826
▁intensivo	-11.826
▁fortezza	-11.826
▁conclude	-11.8261
▁incontravano	-11.8262
▁formativa	-11.8262
▁greci	-11.8262
▁soddisfino	-11.8265
▁negoziazione	-11.827
▁notifica	-11.8275
ignoto	-11.8276
▁previste	-11.8276
▁tribù	-11.8287
▁rigogliosa	-11.8288
▁sospeso	-11.8289
▁scia	-11.8291
▁esportare	-11.8297
▁Vaticana	-11.8298
▁Avev	-11.83
▁costose	-11.8303
ni	-11.8305
▁cominciare	-11.8318
▁doccia	-11.8319
▁mouse	-11.8319
▁vicinanze	-11.832
▁contemplazione	-11.832
▁agriturismo	-11.8324
▁tornata	-11.8326
▁ristorazione	-11.8327
▁elastica	-11.8328
▁danneggiate	-11.8328
▁sospette	-11.8328
▁contemporanee	-11.8331
▁DoS	-11.8332
▁Eclipse	-11.8334
▁evita	-11.8337
▁ospitato	-11.8338
▁riuscivano	-11.8346
▁diretti	-11.8347
▁universitario	-11.8347
▁XIX	-11.8349
▁palco	-11.8349
▁cremosa	-11.835
▁fila	-11.8351
▁chiamate	-11.8351
▁sottostanti	-11.8351
▁sbagliare	-11.8354
▁consolidate	-11.8356
▁animate	-11.8361
▁made	-11.8365
ossigeno	-11.8366
▁porti	-11.8367
ossobuco	-11.8369
attuazione	-11.8369
▁anfiteatro	-11.8371
▁deforestazione	-11.838
▁preoccuparti	-11.838
▁rigorosa	-11.8381
▁manoscritti	-11.8381
▁tappeto	-11.8385
▁cognome	-11.8385
▁parcheggiare	-11.8386
▁razza	-11.8387
▁scusa	-11.8395
▁Chicago	-11.8397
▁Sar	-11.8398
▁esibire	-11.8401
▁picco	-11.8408
▁nylon	-11.841
▁chatbot	-11.841
▁about	-11.8411
▁asincrono	-11.8413
▁trasferito	-11.8413
▁lavaggio	-11.8414
▁chiedersi	-11.8414
▁propose	-11.8416
▁valorizzato	-11.8416
Sicilia	-11.8417
▁Notre	-11.8419
▁multe	-11.842
▁incontaminati	-11.842
▁avocado	-11.8425
▁metropolitana	-11.8442
▁distruggere	-11.8446
▁dipendono	-11.8446
▁campioni	-11.8446
▁interiorità	-11.8447
▁riveste	-11.8453
▁orale	-11.8454
▁circondavano	-11.8463
▁attore	-11.8466
▁capitato	-11.8468
▁ponti	-11.8469
▁XVI	-11.8471
▁siede	-11.8472
▁Grande	-11.8472
▁arcate	-11.8473
▁dirigenti	-11.8474
▁primaverile	-11.8474
▁prudenti	-11.8474
▁sindrome	-11.8476
▁giudicati	-11.8477
▁conservati	-11.8479
PHP	-11.848
Verificando	-11.8481
▁conferisc	-11.8482
▁combinano	-11.8485
▁godert	-11.8485
▁analizzano	-11.8488
▁odore	-11.8493
talmente	-11.8493
▁consuma	-11.8493
▁escursione	-11.8497
▁staff	-11.8499
▁fantascienza	-11.8504
▁compostezza	-11.8504
▁propulsione	-11.8504
▁ballerini	-11.8505
▁manipolazione	-11.8505
▁anime	-11.8509
▁avventuroso	-11.8509
▁mal	-11.8516
▁rivelata	-11.852
inclusione	-11.8521
▁incessante	-11.8526
▁viola	-11.8528
▁parmigiano	-11.8535
▁restituire	-11.8538
▁riciclare	-11.8538
▁toscano	-11.8539
▁differenziata	-11.8541
▁respiratorie	-11.8542
▁proposto	-11.8542
▁essendo	-11.8547
▁complete	-11.8551
Bonifacio	-11.8553
▁raro	-11.8557
▁occupava	-11.8557
▁rilevamento	-11.8567
▁guanciale	-11.8568
Imparare	-11.8568
▁interrotto	-11.8569
▁singoli	-11.857
▁tagliata	-11.8573
▁sportivi	-11.8573
▁lavorati	-11.8578
Musei	-11.8582
▁rispettosa	-11.8588
▁at	-11.8593
▁commercianti	-11.8598
▁inferiore	-11.8599
▁sbocciano	-11.8599
▁varianti	-11.8602
▁svelare	-11.8602
▁danze	-11.8604
▁poveri	-11.8607
sti	-11.8608
▁personalmente	-11.8608
▁studiata	-11.8613
▁torte	-11.8614
▁invio	-11.8621
▁scientifici	-11.8621
▁errata	-11.8628
▁storage	-11.8629
▁where	-11.863
▁traiettoria	-11.863
▁cime	-11.863
▁tipologia	-11.863
nelle	-11.8631
m	-11.8633
▁sorridere	-11.8633
▁Aethereia	-11.8634
▁comoda	-11.8635
▁descritti	-11.8638
▁Papa	-11.8644
▁Tommaso	-11.8648
▁chiacchiere	-11.8648
▁low	-11.865
▁servite	-11.8652
▁radiazioni	-11.8662
▁eroi	-11.8662
▁sovietico	-11.8663
▁sottovalutare	-11.8666
▁minima	-11.8668
▁Domani	-11.8681
riorganizzazione	-11.8689
bbene	-11.8691
▁computing	-11.8693
▁pluviale	-11.8693
▁venditori	-11.8694
▁televisiva	-11.8694
▁XII	-11.8694
▁incendio	-11.8695
▁stimolanti	-11.8696
assicurarmi	-11.8697
▁arrivando	-11.8699
▁impossibili	-11.87
▁ambiti	-11.8701
Michelangelo	-11.8707
▁Serve	-11.871
▁Scelse	-11.8714
accettazione	-11.8715
▁aggiunte	-11.8715
▁Adobe	-11.8716
▁misurazione	-11.8716
isolamento	-11.872
▁ospitale	-11.8721
▁potenze	-11.8722
SEA	-11.8723
▁Earth	-11.8725
▁importa	-11.8726
▁cavoli	-11.8727
▁beneficiato	-11.8728
▁presentarsi	-11.8737
▁accordi	-11.8737
B	-11.8742
Mdina	-11.8745
▁aiutarono	-11.8746
accoglienza	-11.8747
▁R	-11.8749
sufficientemente	-11.8755
▁affaccia	-11.8757
▁femminile	-11.8757
▁guidava	-11.8758
▁boccone	-11.8758
▁discutendo	-11.8758
▁biologico	-11.8758
▁cemento	-11.8759
▁affinare	-11.8761
Dame	-11.8761
▁scienziato	-11.8764
▁unito	-11.8767
up	-11.8768
▁portate	-11.8769
▁preparazioni	-11.8769
▁specchio	-11.877
▁colonna	-11.8786
▁calorosa	-11.8788
▁latticini	-11.8788
▁coordinamento	-11.8789
▁lievito	-11.879
▁moneta	-11.879
▁sopportare	-11.879
▁Gesù	-11.8797
▁dotate	-11.8801
▁avvenuta	-11.8805
▁abbondanza	-11.8807
Fi	-11.8807
▁raccontata	-11.8809
▁esploratore	-11.8814
▁emana	-11.8818
olfatto	-11.8818
▁frenetica	-11.882
▁ricezione	-11.8821
▁zuccherati	-11.8822
▁validazione	-11.883
▁meravigliose	-11.8834
▁facce	-11.8834
▁vigilanza	-11.8836
approvazione	-11.8844
▁distrazione	-11.8846
Aria	-11.8849
▁architetto	-11.885
▁spensieratezza	-11.8853
▁piacciono	-11.8853
▁cannella	-11.8853
▁cantina	-11.8854
▁conducenti	-11.8855
▁fritte	-11.8855
▁tortuoso	-11.8856
▁Ultimamente	-11.886
▁maschere	-11.886
▁trasportato	-11.886
▁chirurgo	-11.8861
▁suggerisce	-11.8863
▁applicato	-11.8868
▁gare	-11.887
abitazione	-11.8872
▁Paul	-11.8873
attrezzatura	-11.8873
▁protesta	-11.8882
erba	-11.8886
▁ferroviaria	-11.8888
▁Fiumi	-11.8888
▁disturbare	-11.8888
▁correlate	-11.8888
▁cardiaca	-11.8888
▁papanasi	-11.889
▁processore	-11.8891
▁battito	-11.8893
▁coperte	-11.8896
▁inevitabile	-11.8896
▁amati	-11.8898
ondata	-11.8899
esercito	-11.8907
▁coordinato	-11.8911
▁attualmente	-11.8918
▁cameriere	-11.8919
▁armonizzare	-11.8922
▁sconosciute	-11.8925
▁rappresentante	-11.8942
Esegui	-11.8944
atleta	-11.8945
▁turbo	-11.8945
▁congestione	-11.8949
▁apachectl	-11.895
▁cadde	-11.895
▁magiche	-11.8951
▁organismi	-11.8953
▁riuniti	-11.8953
▁svegliato	-11.8954
▁farinata	-11.8956
▁Nazioni	-11.8956
▁insegnava	-11.8957
vennero	-11.8957
▁adottata	-11.8958
▁calcolare	-11.8959
▁tem	-11.8963
▁edificare	-11.8973
▁banda	-11.8977
▁calmante	-11.8977
▁sponde	-11.8977
▁management	-11.8983
▁ribollita	-11.8984
▁soffitto	-11.8984
▁prigione	-11.8984
▁cerebrale	-11.8984
▁XYZ	-11.8985
▁categoria	-11.8986
▁apprezza	-11.8987
▁lottando	-11.8997
▁diventava	-11.8998
al	-11.8999
▁tramonta	-11.9
▁fisicamente	-11.901
▁trovarono	-11.9012
▁darà	-11.9013
ai	-11.9014
▁vicinanza	-11.9017
▁aprono	-11.9018
▁statistici	-11.9018
▁morire	-11.9019
▁qualcun	-11.902
▁Quattro	-11.902
▁aromatico	-11.9021
▁fermo	-11.9027
▁colto	-11.9029
▁iscritto	-11.903
▁EcoCycle	-11.9039
▁Psyllium	-11.904
▁essenze	-11.9042
esportazione	-11.9044
▁invasioni	-11.9049
▁necessariamente	-11.905
▁Eterna	-11.9051
▁letterarie	-11.9051
▁continenti	-11.9051
▁aeroporto	-11.9052
▁coperta	-11.9053
▁confondere	-11.9054
▁landing	-11.9055
▁atletica	-11.906
▁adotta	-11.906
▁validi	-11.9061
▁presta	-11.9065
▁CO	-11.9065
▁operano	-11.907
▁benefica	-11.907
▁segrete	-11.9073
Alcun	-11.9074
▁onestà	-11.908
▁selvatiche	-11.9082
▁menù	-11.9082
▁disattivare	-11.9085
▁CSV	-11.9086
▁divina	-11.9086
▁sorpreso	-11.9087
Esamina	-11.9089
▁Oriente	-11.9091
▁criticamente	-11.9092
▁diligenza	-11.9093
▁articolate	-11.9094
rtanto	-11.9095
▁gustosi	-11.9097
▁accolti	-11.9097
elevata	-11.9099
▁generi	-11.9101
▁antivirus	-11.9104
illuminazione	-11.9105
rne	-11.9106
appuntamento	-11.9109
▁valorizza	-11.9111
▁tabella	-11.9113
▁doti	-11.9115
▁provvedimenti	-11.9115
▁gigante	-11.9116
▁maltese	-11.9116
▁circolare	-11.9117
▁macOS	-11.9118
▁natalizie	-11.9121
▁apprezzano	-11.9122
▁mantenerla	-11.9123
▁usando	-11.9125
▁invisibile	-11.9132
▁confusi	-11.9137
ità	-11.9138
▁apprezzamento	-11.9139
▁battigia	-11.9148
▁riuscendo	-11.9148
▁floreali	-11.9149
▁infiammazioni	-11.9149
▁lacrime	-11.915
▁mezza	-11.915
▁migranti	-11.9151
▁scale	-11.9151
▁penetrare	-11.9152
▁esportazione	-11.9158
▁coraggioso	-11.9159
▁rovinar	-11.9159
▁diffusi	-11.916
occuparsi	-11.9162
▁stressata	-11.9162
▁faro	-11.9162
orto	-11.9165
alto	-11.9168
autostima	-11.9174
▁Bellagio	-11.9182
▁detergente	-11.9182
▁profitto	-11.9183
▁menzionato	-11.9183
▁concentrando	-11.9184
▁conduttore	-11.9184
▁filosofo	-11.9185
▁rappresentativo	-11.9187
▁cute	-11.9188
▁reati	-11.9194
prendano	-11.9197
anidri	-11.92
▁scoperti	-11.9209
▁prevedeva	-11.921
▁attrar	-11.9215
▁sigaretta	-11.9215
▁estrem	-11.9216
▁guerrieri	-11.9216
▁Comune	-11.9217
▁tempeste	-11.9225
▁ritmi	-11.9225
▁secondarie	-11.9227
▁meteo	-11.9229
▁India	-11.923
▁ospite	-11.9231
▁istruzione	-11.9234
▁illuminare	-11.9236
▁avverte	-11.9237
imperatore	-11.9244
▁vantaggiose	-11.9246
▁Batch	-11.9248
▁pandemia	-11.9249
▁corazziana	-11.9249
▁tropicali	-11.9249
▁divergenze	-11.925
▁inquietante	-11.9251
▁delizie	-11.9256
▁volle	-11.9256
▁vittorie	-11.9257
▁organici	-11.9257
▁illuminato	-11.9258
▁accettazione	-11.9259
▁calcoli	-11.9259
▁instabile	-11.9259
▁accorse	-11.926
▁attraversano	-11.9262
▁lavoratore	-11.9268
▁degna	-11.927
ssimo	-11.9272
Porta	-11.9273
cioccolato	-11.9276
arresto	-11.9278
▁presentava	-11.928
▁mescola	-11.9282
▁riunì	-11.9282
▁nervosa	-11.9283
▁accettò	-11.9285
▁sconosciuta	-11.9287
intervista	-11.929
WordPress	-11.929
▁generate	-11.9292
▁cifra	-11.9293
portano	-11.9294
▁elimina	-11.9303
▁patente	-11.9305
Scegli	-11.9315
▁guerriero	-11.9317
▁lussureggiante	-11.9317
▁paragrafi	-11.9318
▁super	-11.9319
▁capirono	-11.9319
▁rigidi	-11.932
▁fumare	-11.9321
▁profili	-11.9321
▁cattivo	-11.9323
▁letterario	-11.9333
▁servivano	-11.9334
▁plasma	-11.9334
▁tiro	-11.9337
▁igiene	-11.9338
▁Eryndor	-11.9342
▁corpi	-11.9343
▁cadeva	-11.9349
abuso	-11.9349
▁recessione	-11.935
▁sottolinea	-11.9351
▁cavalli	-11.9352
▁modellazione	-11.9352
▁governano	-11.9353
▁accoglie	-11.9353
Adamello	-11.9354
▁&	-11.9355
▁grafico	-11.9356
▁vorrebbe	-11.9357
▁dannoso	-11.9358
▁Sull	-11.9364
▁elasticità	-11.9372
▁XV	-11.9373
▁intera	-11.9374
▁vastità	-11.9384
▁dintorni	-11.9385
▁rinascimentali	-11.9385
▁residenziale	-11.9386
▁soggettiva	-11.9388
▁partiti	-11.9388
▁gratuiti	-11.9389
▁not	-11.9391
▁sottolineare	-11.9394
▁combinato	-11.9396
▁Foro	-11.9405
▁inesauribile	-11.9408
js	-11.9412
▁dovra	-11.9415
▁stradine	-11.9419
▁spedito	-11.9419
▁tastiera	-11.942
▁previsione	-11.942
▁emergono	-11.9421
▁zucca	-11.9421
▁sfondo	-11.9421
▁territori	-11.9423
▁decifrare	-11.9423
▁morto	-11.9428
▁chimico	-11.9428
▁migratori	-11.9429
▁sentore	-11.9431
▁appassiona	-11.9439
▁Posso	-11.9442
▁celebri	-11.9443
▁strutturare	-11.9444
▁Romani	-11.9444
▁tesa	-11.9446
▁garantiva	-11.9448
▁medaglia	-11.9453
▁righe	-11.9453
▁irritazioni	-11.9453
▁sotterraneo	-11.9453
▁spagnolo	-11.9454
▁Apostolica	-11.9454
▁Facebook	-11.9454
▁romantico	-11.9455
▁serietà	-11.9459
▁marmellata	-11.946
▁Byte	-11.946
▁spaziali	-11.9461
▁cominciato	-11.9462
▁persiste	-11.9464
uno	-11.9471
▁sforza	-11.9472
Galleria	-11.9474
arà	-11.9475
▁diventat	-11.9475
▁elettricità	-11.9477
▁guadagn	-11.9479
▁Credo	-11.9483
▁porchetta	-11.9485
▁didattiche	-11.9486
▁convivialità	-11.9486
▁valigia	-11.9487
▁disperata	-11.9487
▁svolgeva	-11.9488
▁multiforme	-11.9488
▁narrazione	-11.9489
▁estremo	-11.949
▁interpretato	-11.9492
▁chiuse	-11.9493
▁colpi	-11.9499
▁Framework	-11.9502
▁intuitive	-11.9504
▁tatto	-11.9508
▁Gran	-11.9509
▁includa	-11.9511
▁hoc	-11.9513
▁sfiducia	-11.952
▁clinica	-11.952
▁laptop	-11.9521
▁arricchiscono	-11.9521
▁renale	-11.9522
▁parallelo	-11.9523
▁idratata	-11.9523
rci	-11.9524
▁incantati	-11.9528
▁andrà	-11.953
▁toscane	-11.9531
▁produttivi	-11.9543
Mediterraneo	-11.9544
▁Arin	-11.9556
▁venditore	-11.9557
▁concepito	-11.9557
▁impressionato	-11.9557
▁deposito	-11.9559
▁consumano	-11.9562
▁arricchendo	-11.9563
▁comportava	-11.9565
▁portarlo	-11.9565
▁prossimi	-11.9566
▁tanta	-11.9567
▁autorizzate	-11.9568
▁luminose	-11.9568
▁aspettavo	-11.9569
attuale	-11.957
impostazione	-11.9571
▁Louvre	-11.9572
▁differente	-11.9575
▁pone	-11.958
▁Porto	-11.958
infezione	-11.9585
▁volesse	-11.9588
▁dashboard	-11.959
▁custodisce	-11.9591
autonomia	-11.9592
▁confezione	-11.9595
▁scacchiera	-11.9597
▁archiviare	-11.9598
▁denso	-11.9601
▁bottiglie	-11.9605
▁fornita	-11.9608
▁Jane	-11.9608
▁ce	-11.961
▁infinita	-11.9611
▁iniziativa	-11.9622
Leonardo	-11.9623
▁location	-11.9623
▁reparto	-11.9625
▁guanti	-11.9625
▁spagnola	-11.9627
▁tangibile	-11.9627
▁didattico	-11.9627
▁disastri	-11.9628
▁formale	-11.963
▁degno	-11.9633
▁formule	-11.9634
▁gala	-11.9635
▁ossea	-11.9635
Significa	-11.9637
▁maglia	-11.9637
▁stereotipi	-11.9637
▁beve	-11.9639
▁Controller	-11.9644
▁radicali	-11.9647
▁frequente	-11.966
▁sostentamento	-11.9661
▁guardò	-11.9661
algoritmo	-11.9661
▁malware	-11.9661
▁contadino	-11.9662
▁verificò	-11.9663
▁incontrarono	-11.9664
▁avvolgente	-11.9664
▁nascondeva	-11.9664
▁verificati	-11.9666
▁concede	-11.9667
▁rispettata	-11.9667
Evita	-11.9671
nche	-11.9677
▁ignorare	-11.9679
▁taglio	-11.9693
atteggiamento	-11.9694
▁liquidità	-11.9695
▁soave	-11.9695
▁averla	-11.9696
▁bilanciamento	-11.9696
▁dubitare	-11.9697
▁piccante	-11.9697
NT	-11.9697
▁pianificò	-11.9697
▁vedevo	-11.9698
▁default	-11.9699
▁adattate	-11.97
▁illeciti	-11.9701
▁inaccessibili	-11.9702
▁acida	-11.9703
▁costituito	-11.9704
▁sushi	-11.9706
▁recato	-11.9708
▁imprevedibile	-11.971
▁conforme	-11.9714
▁mirati	-11.9716
▁educazione	-11.9723
▁clientela	-11.9723
▁preoccupa	-11.9729
▁pecorino	-11.973
▁n	-11.9733
esperanto	-11.9735
▁strani	-11.9735
▁diresse	-11.9737
▁persistente	-11.9738
▁regna	-11.9738
▁apprendista	-11.9742
▁occupazione	-11.9742
▁ricord	-11.9743
Verifica	-11.9747
ospitare	-11.9747
▁sacra	-11.9751
▁interpreta	-11.9752
▁voi	-11.9755
▁ospitano	-11.9758
▁atti	-11.9762
▁plug	-11.9764
▁intimo	-11.9765
▁videogiochi	-11.9766
▁imparziale	-11.9767
tamente	-11.9767
▁petali	-11.9768
▁trattava	-11.977
▁sfruttato	-11.9771
▁unì	-11.9771
Analizzando	-11.9772
▁visivi	-11.9776
▁autonome	-11.9777
▁ispirata	-11.9778
▁intere	-11.9778
▁selezionata	-11.9782
▁insicurezza	-11.9785
sa	-11.9786
▁col	-11.9786
▁organizzate	-11.979
▁also	-11.9791
▁tesi	-11.9796
Amatriciana	-11.9797
▁prato	-11.9801
▁puzzle	-11.9801
▁salvezza	-11.9801
▁puro	-11.9802
▁settentrionale	-11.9804
▁Scienza	-11.9808
▁manca	-11.981
▁rilasciare	-11.9813
▁generata	-11.9823
▁valutata	-11.9824
▁vasi	-11.9831
▁buoni	-11.9834
▁focus	-11.9836
▁stupore	-11.9837
▁alimenta	-11.9837
▁giungla	-11.9838
▁propensione	-11.9838
▁montuosa	-11.9838
▁migliorate	-11.9838
▁insignificante	-11.9839
▁catene	-11.984
▁this	-11.984
▁scaricato	-11.9841
▁vogliamo	-11.9842
▁mancato	-11.9842
▁decenni	-11.9845
▁matrimoni	-11.9845
▁illuminazione	-11.9846
▁utilizzarle	-11.9848
▁stabil	-11.9849
▁genuine	-11.9851
▁suggestive	-11.9851
▁pensi	-11.9855
▁costringe	-11.9856
▁insorgere	-11.9858
▁affidar	-11.986
▁patto	-11.9863
▁seria	-11.9863
▁cliccar	-11.9866
▁Verona	-11.9867
▁rock	-11.9873
▁prosperò	-11.9873
▁rughe	-11.9873
▁fotografica	-11.9873
▁bevuto	-11.9874
▁inesattezze	-11.9875
▁matura	-11.9877
▁miliardi	-11.9877
▁muovere	-11.9877
▁dur	-11.9877
▁inediti	-11.9877
▁tavoli	-11.9877
Inghilterra	-11.9879
▁Flights	-11.9881
▁Rendering	-11.9881
Controlla	-11.9881
▁PNG	-11.9884
▁motivare	-11.9887
▁Brasile	-11.9887
▁HTTPS	-11.9889
browser	-11.9895
▁manifestano	-11.9899
▁troppa	-11.9902
▁fontane	-11.9907
▁giardinaggio	-11.9908
▁operazione	-11.9909
▁project	-11.9909
▁verbale	-11.9909
▁dolcetti	-11.991
▁vocale	-11.9911
▁ricettive	-11.9911
▁confusioni	-11.9914
▁distribuire	-11.9919
▁riforme	-11.992
▁mela	-11.992
▁superata	-11.9927
▁cacciare	-11.9929
▁sollevare	-11.9929
▁Inizi	-11.9935
▁durare	-11.9939
▁ubicato	-11.9941
▁divent	-11.9944
▁precipitazioni	-11.9945
▁calorico	-11.9945
▁rallentamento	-11.9945
▁spiacevoli	-11.9945
▁spontaneo	-11.9945
▁testimonianza	-11.9946
▁riciclati	-11.9946
▁sostanziali	-11.9946
▁sottoposto	-11.9946
▁temporaneo	-11.9947
▁pensione	-11.9949
ospitalità	-11.9949
▁ecologici	-11.9951
▁segna	-11.9952
EVE	-11.9952
▁meravigliosi	-11.9954
Ambrogio	-11.9956
▁processare	-11.9956
▁profumata	-11.9957
▁piacevoli	-11.9958
▁Ryan	-11.9961
▁navi	-11.9962
sentano	-11.9963
aura	-11.9964
▁miti	-11.997
▁ergeva	-11.9975
▁mago	-11.9976
▁cedere	-11.9977
▁motoria	-11.9977
▁genio	-11.9979
▁conteneva	-11.9979
▁cristallini	-11.998
▁bit	-11.998
▁alunni	-11.9981
saltare	-11.9981
sporre	-11.9981
▁rilassarti	-11.9981
tengono	-11.9983
▁sovrano	-11.9983
hardware	-11.9985
▁paga	-11.9986
▁continui	-11.9987
Esplorando	-11.999
▁contenute	-11.9992
▁repository	-11.9998
▁schema	-12
▁emerse	-12.0001
personalizzabile	-12.0004
▁tassi	-12.0004
▁sedere	-12.001
▁derivare	-12.0017
▁agevolmente	-12.0017
▁separarsi	-12.0018
▁incantevoli	-12.0019
▁cardiaco	-12.0019
▁monete	-12.002
ingrediente	-12.0021
▁Volev	-12.0021
▁bloccata	-12.0022
▁modificando	-12.0026
▁paragonat	-12.0031
▁irreversibili	-12.0034
Valutar	-12.0037
▁inquinamento	-12.0037
▁continuamente	-12.0046
▁Gateway	-12.0053
▁rivalità	-12.0053
▁acquirenti	-12.0054
▁civili	-12.0055
▁appreso	-12.0055
▁afferrare	-12.0055
one	-12.0055
▁abilitato	-12.0057
▁rappresentate	-12.0061
AddressDetails	-12.0061
▁tenta	-12.0062
▁emotivamente	-12.0063
▁visualizzato	-12.0068
▁vedevano	-12.0069
▁George	-12.0071
IMA	-12.0077
▁Cre	-12.0082
▁mercanti	-12.0084
▁pianure	-12.0091
▁nucleari	-12.0091
▁sprecare	-12.0093
▁idratazione	-12.0093
▁cortesia	-12.0094
▁decisive	-12.0097
▁rivolge	-12.0097
▁Content	-12.01
▁impone	-12.0106
▁corretti	-12.011
▁usa	-12.011
sino	-12.0112
▁Pierre	-12.012
▁accertare	-12.0121
entina	-12.0122
▁mutevoli	-12.0127
▁contaminazione	-12.0127
▁geniale	-12.0128
intento	-12.0131
▁intellettuali	-12.0132
▁suite	-12.0134
Costruire	-12.0134
▁inviata	-12.0136
▁riconosce	-12.0139
▁an	-12.0149
▁decisa	-12.0151
▁strato	-12.0157
▁club	-12.0161
▁liscia	-12.0162
▁sommità	-12.0163
▁Pietroburgo	-12.0163
▁geopolitica	-12.0164
▁professoressa	-12.0164
▁XVII	-12.0165
▁laterale	-12.0165
▁useState	-12.0165
▁Office	-12.0166
▁conoscenti	-12.0166
ultidisciplinare	-12.0166
▁santuario	-12.0168
▁regolamento	-12.0168
gettare	-12.0169
▁Codeigniter	-12.0171
esterno	-12.0171
▁dorate	-12.0172
▁Elyria	-12.0172
▁Napoleone	-12.0179
▁marinai	-12.018
▁contenent	-12.0189
▁Esist	-12.0193
▁obesità	-12.0196
▁percentual	-12.0197
▁trasmettono	-12.02
▁esponenziale	-12.0201
▁gioiello	-12.0202
▁favorito	-12.0202
▁gratuitamente	-12.0203
▁brillanti	-12.0203
▁riviste	-12.0203
▁appassionante	-12.0203
▁ormoni	-12.0204
▁cardiaci	-12.0204
▁vincenti	-12.0205
attivazione	-12.0207
▁centrali	-12.0215
▁forniva	-12.022
▁facesse	-12.0235
▁manufatto	-12.0237
▁pedoni	-12.0238
▁basilari	-12.0238
▁vicolo	-12.0238
▁fragranze	-12.0238
▁minuziosamente	-12.0239
▁riconoscendo	-12.024
▁emozionale	-12.024
▁bloccati	-12.0243
▁g	-12.0244
▁associata	-12.0244
▁crebbe	-12.0246
▁compone	-12.0249
▁abitano	-12.025
▁ladro	-12.0252
▁Ligure	-12.0254
▁poste	-12.0258
ati	-12.026
▁organizz	-12.0264
▁geni	-12.0265
▁uccello	-12.0271
▁giallo	-12.0273
▁legislazione	-12.0275
▁riconoscibile	-12.0275
▁controllando	-12.0275
▁brillavano	-12.0277
▁probabile	-12.0277
▁Mantova	-12.0277
nza	-12.0279
▁turno	-12.0282
▁energetici	-12.0282
▁coordinate	-12.0282
▁sospetti	-12.0283
▁incrementa	-12.0283
▁accurato	-12.0285
▁costosa	-12.0286
▁respirava	-12.0289
▁adulto	-12.029
▁DreamHost	-12.029
▁Mentale	-12.0292
▁ottimizzate	-12.0294
▁eccessive	-12.0294
▁URL	-12.0297
▁concentrano	-12.0298
▁hacker	-12.03
▁incubo	-12.0301
▁Siberia	-12.0306
Seguire	-12.0309
▁obblighi	-12.0312
▁inondazioni	-12.0312
▁imperdibile	-12.0313
▁skills	-12.0313
▁sospettato	-12.0314
▁manifestarsi	-12.0314
▁impresso	-12.0316
▁terrazze	-12.0317
▁viaggiato	-12.0318
▁utilizzarla	-12.0322
▁esatte	-12.0323
assassino	-12.0327
▁credevano	-12.033
▁dando	-12.0333
ventò	-12.0335
▁Immagina	-12.0337
▁cerchio	-12.0339
▁appaiono	-12.0349
▁dirige	-12.0349
▁contagiosa	-12.035
▁interagisce	-12.0351
▁conceder	-12.0355
▁doppio	-12.0356
▁crescevano	-12.0357
▁tenuti	-12.0363
▁secco	-12.0363
▁chiedevano	-12.0365
▁Aurora	-12.0371
▁rivelano	-12.0377
▁escursionisti	-12.0379
▁animata	-12.0383
▁insufficiente	-12.0385
▁customer	-12.0385
▁turistici	-12.0387
▁cortile	-12.0388
▁conosciamo	-12.0388
album	-12.04
▁XLSX	-12.0405
▁divino	-12.0406
▁Hann	-12.0407
▁affrontate	-12.0418
▁souvenir	-12.0422
▁cappotto	-12.0424
▁criminalità	-12.0425
▁proviene	-12.0425
▁spinaci	-12.0425
▁monetaria	-12.0427
▁simbolico	-12.0427
▁punteggio	-12.0428
▁provocando	-12.0428
▁accuse	-12.0429
▁genuino	-12.043
▁scavi	-12.0431
▁percezioni	-12.0432
▁accumulate	-12.0433
▁tennis	-12.0434
▁rispettati	-12.0435
▁ottica	-12.0437
irritazione	-12.0438
▁scienze	-12.0443
▁avvolto	-12.0451
▁avvale	-12.0452
▁esalta	-12.0453
eguendo	-12.0455
▁template	-12.046
virtualizzazione	-12.0461
▁associazioni	-12.0463
▁innamorati	-12.0464
▁ragionamento	-12.0465
▁allontanarsi	-12.0466
▁inglesi	-12.0466
▁domina	-12.0467
▁Ieri	-12.0467
▁milanesi	-12.0468
▁condividevano	-12.047
Airbnb	-12.0476
▁papa	-12.0477
▁farle	-12.0478
▁saporita	-12.0481
▁disputa	-12.0488
▁oscura	-12.0499
▁anticipata	-12.05
▁madrelingua	-12.05
▁costruendo	-12.0501
Oltre	-12.0501
▁ricreative	-12.0501
▁energico	-12.0502
▁rivelarsi	-12.0504
▁linguistico	-12.0505
▁sarò	-12.0505
▁focalizzata	-12.0506
▁massaggio	-12.0507
▁ritrovano	-12.0509
▁gravemente	-12.051
ventino	-12.0511
▁conseguito	-12.0511
▁liberazione	-12.0513
ascoltatore	-12.0513
▁allegare	-12.0517
▁sare	-12.0518
▁com	-12.052
▁generati	-12.0524
▁isolata	-12.0528
▁Lorenzo	-12.0533
▁avvicinava	-12.0534
▁stazioni	-12.0536
▁cavo	-12.0538
▁XIV	-12.0538
▁celebrate	-12.0539
▁testato	-12.0539
▁grosso	-12.054
▁adattando	-12.054
▁contributi	-12.054
▁radiazione	-12.054
▁cioccolata	-12.0541
▁FTP	-12.0543
▁decorata	-12.0543
▁timo	-12.0547
▁preparate	-12.0549
Menaggio	-12.0552
▁sorge	-12.0555
▁getta	-12.0564
▁succedeva	-12.0573
▁domestiche	-12.0577
▁gocce	-12.0577
▁bollette	-12.0578
▁amorevole	-12.0578
▁concentrare	-12.0579
▁incontriamo	-12.058
▁statistica	-12.0581
▁coordinata	-12.0582
▁confrontarsi	-12.0582
▁comportarsi	-12.0583
▁fidarsi	-12.0583
▁svolgendo	-12.0593
affitto	-12.0594
▁sconto	-12.0594
▁concluse	-12.0596
▁ruota	-12.0599
▁rose	-12.06
▁modificata	-12.06
▁T	-12.0606
▁metteva	-12.061
▁archivio	-12.0612
▁Vive	-12.0615
▁carnevale	-12.0615
▁dimenticò	-12.0616
▁Unzen	-12.0616
▁through	-12.0616
▁aggressivi	-12.0617
▁sfrutta	-12.0619
▁creatura	-12.0619
▁lavorarono	-12.0623
▁soggiorni	-12.0627
yogurt	-12.0627
▁lottato	-12.0636
▁service	-12.0645
▁lancia	-12.0652
▁Patterson	-12.0653
▁giocattolo	-12.0654
▁uguali	-12.0654
▁Festival	-12.0655
▁reperire	-12.0655
▁basse	-12.0655
▁protettivo	-12.0656
▁educare	-12.0656
so	-12.0661
▁ritrovato	-12.0662
▁valorizzati	-12.0662
Venezia	-12.0666
▁operai	-12.0667
Bill	-12.067
▁rappresentando	-12.0671
▁organo	-12.0676
▁utility	-12.068
▁pareva	-12.0689
▁Bay	-12.0692
▁balletto	-12.0692
▁make	-12.0693
▁tragedia	-12.0693
▁Asinara	-12.0693
▁normalità	-12.0693
▁artefatti	-12.0693
▁affatto	-12.0695
▁barocco	-12.0695
▁sincero	-12.0696
▁attraenti	-12.0696
▁donato	-12.0696
▁successivamente	-12.0697
▁specialistiche	-12.0698
▁compromessi	-12.0699
▁Kim	-12.0704
▁conservano	-12.0704
▁Muro	-12.071
▁relazionale	-12.0712
▁carichi	-12.0716
▁raggio	-12.0717
▁permettevano	-12.0721
▁prossim	-12.0721
▁latina	-12.0725
▁35	-12.0731
▁arricchente	-12.0732
▁fantastica	-12.0733
▁leggibile	-12.0733
▁radicata	-12.0734
▁trasmessi	-12.0735
▁Bellavista	-12.0736
▁Juventus	-12.0739
intensa	-12.0746
▁cronici	-12.0747
▁guerre	-12.0748
▁effettuate	-12.0748
automobile	-12.075
▁apertamente	-12.0751
▁Kiev	-12.0757
▁'[	-12.0759
▁scrisse	-12.0761
▁temporali	-12.0766
▁interi	-12.0768
▁utilizzavano	-12.0769
▁assorb	-12.0769
nno	-12.077
▁farli	-12.077
▁Tempio	-12.077
▁soffocante	-12.0771
▁Elisabetta	-12.0776
▁incanto	-12.0777
▁odori	-12.0777
▁batte	-12.0784
▁impiega	-12.0784
stato	-12.0785
▁altra	-12.0788
▁donare	-12.08
▁analizzate	-12.08
▁potessi	-12.0803
▁valutate	-12.0808
▁bontà	-12.0809
▁geometriche	-12.081
▁fuochi	-12.081
Adottando	-12.081
▁transito	-12.0811
▁sfavorevoli	-12.0811
▁catastrofe	-12.0811
▁superflue	-12.0812
▁battuta	-12.0812
▁rinforzare	-12.0813
▁predefinite	-12.0813
▁gastronomico	-12.0814
▁ininterrotto	-12.0815
▁crescendo	-12.0815
▁infrastruttura	-12.0821
▁consisteva	-12.0822
insorgere	-12.083
▁ferito	-12.0831
▁logiche	-12.0832
▁esattezza	-12.0835
▁donando	-12.0836
▁considerava	-12.0837
▁distrutto	-12.0838
▁altezza	-12.0846
▁istinto	-12.0846
▁ruscello	-12.0849
▁interviene	-12.0849
▁Carnevale	-12.0849
▁monumentali	-12.085
▁amichevole	-12.085
▁pianura	-12.085
▁fermarmi	-12.085
▁relazionali	-12.0851
▁rigoglioso	-12.0851
▁acquisito	-12.0851
▁peculiare	-12.0853
rlo	-12.0853
▁scuro	-12.0854
▁BehaviorSubject	-12.0854
▁africani	-12.0855
▁ammirata	-12.0856
▁leggendario	-12.0856
▁smesso	-12.0857
▁costituita	-12.086
▁Lì	-12.086
▁eseguono	-12.0865
Jane	-12.087
▁giocoso	-12.0872
▁buia	-12.0872
▁fetta	-12.0874
▁convegno	-12.0889
▁hub	-12.0889
pasta	-12.0889
▁stoffa	-12.0889
▁sospensione	-12.089
▁vincitore	-12.089
▁idrico	-12.089
▁panoramiche	-12.089
▁multiple	-12.0891
▁ponderare	-12.0892
▁Utilizza	-12.0893
▁succederebbe	-12.0895
▁rivoluzionario	-12.0898
▁dicono	-12.09
▁rispettosi	-12.09
▁velo	-12.09
▁fiamma	-12.0902
▁soffre	-12.0902
▁systemctl	-12.0902
▁batteria	-12.0908
agli	-12.091
imputato	-12.0912
▁denti	-12.092
▁archeologi	-12.0923
▁trascorre	-12.0927
esperta	-12.0928
▁raccolgono	-12.0928
▁settembre	-12.0928
▁spostamenti	-12.0929
▁glorioso	-12.0929
▁vivacità	-12.0929
▁tentativi	-12.0929
▁colpevole	-12.0929
▁scripting	-12.0929
▁esteticamente	-12.093
▁infinito	-12.093
▁sovrana	-12.093
▁esausto	-12.0931
▁teatri	-12.0931
▁altrove	-12.0932
▁esploratori	-12.0932
▁cuoca	-12.0933
▁ostile	-12.0933
▁notturni	-12.0934
▁Quant	-12.0938
▁gustato	-12.094
▁sperano	-12.0969
▁sappiamo	-12.0969
▁mostrò	-12.097
▁concorrenti	-12.0971
▁cattedrali	-12.0971
▁espandersi	-12.0971
▁liste	-12.0972
▁guidando	-12.0975
é	-12.0976
es	-12.0978
▁man	-12.0979
▁utilizzi	-12.0981
HTTP	-12.0982
▁strutturali	-12.0988
▁culla	-12.0991
▁sistematica	-12.0991
▁raccolse	-12.0998
▁abbassar	-12.1003
Dalla	-12.1003
▁entrato	-12.1006
▁camion	-12.1008
▁Sforzesco	-12.1008
▁intento	-12.1009
▁Venere	-12.1009
▁soldato	-12.1009
▁analisti	-12.101
▁tropicale	-12.101
▁basilare	-12.101
▁terzo	-12.1011
▁spegnere	-12.1013
▁raccomandato	-12.1014
▁vigili	-12.1017
▁feriti	-12.1019
▁destinati	-12.1024
Mantener	-12.1025
▁PPTX	-12.1025
originalità	-12.1029
▁JPA	-12.103
irrigazione	-12.103
▁aspettativa	-12.1033
▁guadagnando	-12.1036
▁dedicati	-12.104
▁configurati	-12.1042
▁incondizionata	-12.1042
personalizzabili	-12.1047
▁veridicità	-12.1048
▁pellegrini	-12.1049
▁soglia	-12.1049
▁tasto	-12.1049
▁ondulate	-12.105
▁fuso	-12.105
▁suggerito	-12.105
▁orecchie	-12.1051
▁risparmiando	-12.1051
▁connetterci	-12.1054
▁utilizzarli	-12.1056
Potra	-12.1056
▁appagamento	-12.1056
▁strutturati	-12.1063
▁conservate	-12.1065
sentirono	-12.1065
▁subisc	-12.1068
▁concise	-12.107
▁Inizia	-12.1071
Australia	-12.1071
Deve	-12.1078
▁rallentato	-12.108
▁voti	-12.1086
▁tonalità	-12.1088
▁matematiche	-12.1089
▁certe	-12.1089
▁sconfiggere	-12.109
▁riprovare	-12.1091
▁burocratico	-12.1091
▁salita	-12.1093
▁grafiche	-12.1093
▁digita	-12.1093
▁balconi	-12.1094
▁mangiando	-12.1095
approfondita	-12.1095
▁abbondanti	-12.1096
▁siciliane	-12.1097
▁mappe	-12.1097
▁preferire	-12.1099
▁Unite	-12.1107
▁univa	-12.111
Madre	-12.1113
▁album	-12.1113
▁Chiunque	-12.1114
▁somme	-12.1117
▁knew	-12.1129
▁giugno	-12.1129
▁culurgiones	-12.1129
▁Kyoto	-12.113
▁imprenditoriale	-12.1132
▁emerso	-12.1132
▁insopportabile	-12.1132
▁fritti	-12.1132
▁decorazione	-12.1132
▁migliorarlo	-12.1133
▁replica	-12.1134
▁completi	-12.1152
▁guidano	-12.1153
omicidio	-12.1156
▁Potre	-12.116
▁prendo	-12.1163
mostrò	-12.1164
▁emotivi	-12.1165
▁magari	-12.117
▁single	-12.1171
▁proporzionale	-12.1171
▁limpida	-12.1171
▁prepararmi	-12.1171
▁costruttore	-12.1172
▁consulenti	-12.1172
etc	-12.1173
▁esteso	-12.1174
portarono	-12.1175
▁ricevendo	-12.1177
▁sostanziosi	-12.1182
▁finisce	-12.1183
stessero	-12.1185
▁dimenticati	-12.1186
▁malfunzionament	-12.1188
▁render	-12.1189
▁whi	-12.1189
▁aiutata	-12.1192
▁estesa	-12.1198
▁AddressDetails	-12.1199
▁sporcizia	-12.1211
▁vincitori	-12.1211
▁Fiore	-12.1211
▁inserisce	-12.1213
▁ascoltatori	-12.1213
▁organizzatori	-12.1214
▁rilasciata	-12.1216
▁ritornare	-12.1217
▁recava	-12.1218
▁bersaglio	-12.1219
▁Portofino	-12.1219
▁/	-12.1222
Permette	-12.1223
▁aggiunse	-12.1223
andamento	-12.1228
▁trasformano	-12.1232
▁cittadina	-12.1233
▁lega	-12.1233
▁investe	-12.1237
▁esaltar	-12.1241
una	-12.1243
▁frattempo	-12.1251
▁esotiche	-12.1251
▁fluidità	-12.1251
▁rinascere	-12.1251
▁nacque	-12.1252
▁difendersi	-12.1252
▁laborioso	-12.1252
▁mantengono	-12.1252
▁esistenziale	-12.1252
▁trasformò	-12.1253
▁fornisca	-12.1254
▁spreco	-12.1254
▁dirigente	-12.1255
tevi	-12.1255
▁sovraccarico	-12.1255
▁blocca	-12.1255
▁irreversibile	-12.1256
dotto	-12.1256
▁dibattiti	-12.1257
▁commento	-12.1258
arsi	-12.1258
▁folle	-12.1259
▁copie	-12.1268
▁Centrale	-12.127
▁professional	-12.1272
▁sbloccar	-12.1275
▁unendo	-12.1277
eco	-12.1279
BehaviourSubject	-12.1279
▁intenti	-12.1282
▁pubblicitari	-12.1282
▁pastore	-12.1283
▁classifica	-12.1288
▁freelance	-12.1291
▁tasca	-12.1293
▁osservazioni	-12.1295
▁sapone	-12.1295
▁archeologico	-12.1296
▁ergono	-12.1296
▁Mr	-12.1296
▁superarli	-12.1297
▁estensione	-12.1304
▁frequentato	-12.1306
tempo	-12.1309
▁avranno	-12.1311
▁magici	-12.1314
▁studioso	-12.1317
voli	-12.1318
▁abusi	-12.132
▁radio	-12.1322
▁sorprendere	-12.1328
infiammatorie	-12.1328
▁introdotte	-12.1329
▁firstValueFrom	-12.1334
▁atmosferiche	-12.1334
▁genetiche	-12.1334
▁stoccaggio	-12.1334
▁sollecitazioni	-12.1334
▁domicilio	-12.1334
Hai	-12.1338
▁addestramento	-12.1341
▁sgombro	-12.1342
▁memorabili	-12.1342
▁applicando	-12.1345
▁romanzi	-12.1351
▁vissute	-12.1352
▁certificati	-12.1353
▁divertono	-12.1358
▁derivano	-12.1359
▁gestiva	-12.1359
invito	-12.1362
▁ripulir	-12.1362
onsiderando	-12.1363
urgenza	-12.1363
▁criticato	-12.1369
▁scelgo	-12.1372
▁oceani	-12.1373
azzardo	-12.1375
▁ricorrenze	-12.1376
▁indagando	-12.1376
▁primaverili	-12.1376
▁insegnamenti	-12.1377
▁accesa	-12.1377
▁noioso	-12.1378
▁postura	-12.1378
▁proporzione	-12.1379
▁sfumatura	-12.1379
▁cristallo	-12.1379
▁lanciò	-12.1379
▁toccato	-12.138
▁localizzazione	-12.1382
▁artigianato	-12.1385
▁toni	-12.1385
▁live	-12.139
▁tetti	-12.1391
▁agevola	-12.1392
▁ispirati	-12.1395
▁16	-12.1396
The	-12.1399
intestino	-12.1403
▁PyTorch	-12.1405
▁marinaio	-12.1413
▁rigenerarsi	-12.1417
▁pantaloni	-12.1417
▁sottopor	-12.1418
▁fallito	-12.1418
▁cavaliere	-12.1418
▁spada	-12.1418
▁cotte	-12.1418
▁scolastiche	-12.142
▁affrettate	-12.1421
▁interrotta	-12.1421
▁falso	-12.1422
▁splendida	-12.1422
▁battute	-12.1422
▁programmata	-12.1423
▁superò	-12.1424
▁istanti	-12.1424
▁inedite	-12.1426
▁View	-12.1426
▁antipasto	-12.1428
▁adotti	-12.1429
▁reagiva	-12.1431
▁prender	-12.1433
▁Varenika	-12.1433
▁Olga	-12.1433
▁evoluto	-12.1439
▁sperati	-12.1443
Codeigniter	-12.1447
ersonalizzazione	-12.1449
▁match	-12.1451
erò	-12.1457
▁papà	-12.1459
▁acciottolate	-12.146
▁bravo	-12.146
▁gestibili	-12.146
▁combustibile	-12.1461
▁frustrata	-12.1462
▁astratti	-12.1463
▁investigare	-12.1466
▁esatti	-12.1468
▁crash	-12.1473
▁accompagnamento	-12.1474
▁gite	-12.1476
▁imparano	-12.1476
▁OpenOffice	-12.1477
associazione	-12.1487
▁fisse	-12.1488
▁Vladimir	-12.1492
▁personal	-12.1494
▁modificati	-12.1496
▁tunnel	-12.1497
▁soffriva	-12.1497
SHOP	-12.15
RestController	-12.15
▁bellissima	-12.1503
▁cupola	-12.1503
▁additivi	-12.1503
plugin	-12.1505
▁eseguibile	-12.1506
▁comodi	-12.1507
▁richiedente	-12.151
c	-12.1511
▁sfruttate	-12.1511
per	-12.1511
▁tramandare	-12.1512
▁danzavano	-12.1512
▁stringere	-12.1514
▁PIL	-12.1514
▁esplorano	-12.1514
▁spina	-12.1514
▁tranquilli	-12.1516
▁avvicinarsi	-12.1519
▁scatena	-12.152
▁remoti	-12.1521
hosting	-12.1523
▁confuse	-12.1525
▁desiderava	-12.1528
eliminazione	-12.1531
▁aspettato	-12.1539
▁marzo	-12.1543
▁greche	-12.1543
▁santo	-12.1544
▁adattati	-12.1544
▁monumentale	-12.1545
▁offline	-12.1545
▁abbandonata	-12.1548
▁giudicata	-12.1548
▁specialista	-12.1552
▁visuale	-12.1553
▁indice	-12.1562
▁attributo	-12.1565
▁organica	-12.1569
▁cappella	-12.1572
▁formano	-12.1574
▁time	-12.1577
▁tentato	-12.1579
Sarebbe	-12.158
▁ampie	-12.1582
contraddistingue	-12.1584
ENT	-12.1584
▁Bretagna	-12.1585
▁stringhe	-12.1585
▁napoletana	-12.1586
▁reporting	-12.1586
▁degenerative	-12.1587
▁mutate	-12.1587
▁migrare	-12.1588
▁inebriante	-12.1588
▁riunita	-12.1588
▁Napoli	-12.1591
▁aggiornando	-12.1593
▁PersonalDetails	-12.1594
▁africane	-12.1596
▁eterno	-12.1598
▁acciaio	-12.1601
▁Utilizzando	-12.1606
orlo	-12.1607
▁risolse	-12.1607
▁insegnando	-12.1608
▁affitto	-12.161
fluiscono	-12.1612
Elena	-12.1621
▁identific	-12.1623
▁dirigere	-12.1626
▁cocktail	-12.1626
▁gotiche	-12.1628
▁compimento	-12.1628
▁investigatori	-12.1628
▁City	-12.1628
▁eliminando	-12.163
▁sbocciare	-12.1631
▁organiche	-12.1631
▁sofferenze	-12.1631
solare	-12.1632
▁sonora	-12.1632
▁pulsanti	-12.1634
▁trasportati	-12.1638
▁attraversava	-12.1641
▁consumata	-12.1642
▁esigente	-12.165
▁pubblicati	-12.1655
azioni	-12.1655
▁formata	-12.1656
▁affermare	-12.1657
cost	-12.166
▁sfera	-12.1661
▁part	-12.1665
▁contemporanei	-12.1668
▁valut	-12.167
▁website	-12.167
▁company	-12.1671
rebbero	-12.1673
▁introdurre	-12.1674
▁profumato	-12.1674
▁System	-12.1675
▁articola	-12.1675
▁problematica	-12.1676
▁esercitato	-12.1678
▁governare	-12.1679
▁evolute	-12.1679
▁battere	-12.1688
Co	-12.1691
Qua	-12.1696
▁quotidianamente	-12.1696
▁band	-12.1696
▁affonda	-12.1699
▁giovanile	-12.1703
addestramento	-12.1706
▁quadrati	-12.1712
▁lasagna	-12.1714
▁compromissione	-12.1714
▁docenti	-12.1714
▁pneumatici	-12.1714
▁ragionate	-12.1716
▁burocratica	-12.1717
nfluiscono	-12.1717
▁sufficienza	-12.1718
▁vagare	-12.1718
▁destinatari	-12.172
▁sviluppò	-12.1722
▁Tecnologia	-12.1722
▁delegato	-12.1723
▁dorati	-12.1723
▁grigio	-12.1723
▁regolamenti	-12.1723
▁doppia	-12.1725
▁amate	-12.1734
▁trascorsa	-12.1736
▁bus	-12.1747
▁proroga	-12.1748
▁Arno	-12.1748
esperimento	-12.1749
▁malata	-12.175
▁articolazioni	-12.1758
▁accompagnate	-12.1758
▁realistica	-12.1759
▁mandato	-12.1763
▁tarda	-12.1764
▁attendibilità	-12.1771
▁evidenziare	-12.1771
▁dedicando	-12.1776
▁ottimi	-12.1777
tori	-12.1783
▁poeti	-12.1786
Museo	-12.1787
▁artigiano	-12.179
Django	-12.179
Malta	-12.1796
▁Park	-12.1798
▁trascende	-12.18
▁stretching	-12.18
▁creduto	-12.18
▁pilastro	-12.18
▁intrapreso	-12.1801
▁fragili	-12.1802
▁pareri	-12.1802
▁invitando	-12.1802
▁prestigiosa	-12.1803
▁intraprese	-12.1805
Prendere	-12.1806
▁umide	-12.1807
▁indossato	-12.1808
vremmo	-12.1808
▁grammaticali	-12.1809
▁attratto	-12.1813
▁isolati	-12.1814
▁Giardino	-12.182
▁pensavano	-12.1821
▁illustri	-12.1822
▁lanciata	-12.1822
▁contemporaneo	-12.183
▁Virtual	-12.183
▁riservare	-12.1832
▁abita	-12.1833
Sul	-12.1833
Monte	-12.1836
▁tocca	-12.184
▁raccomanda	-12.1842
▁tinte	-12.1844
▁telecamere	-12.1844
▁impedimenti	-12.1844
▁incentiva	-12.1845
▁tracciamento	-12.1845
▁né	-12.1846
▁cacciatora	-12.1847
▁sostituita	-12.1848
▁sara	-12.185
▁assegnati	-12.185
▁conseguente	-12.185
▁prati	-12.1854
▁guardia	-12.1858
▁divisa	-12.1869
▁Erano	-12.187
▁oscuro	-12.187
Superar	-12.187
▁ramo	-12.1877
▁capiva	-12.1886
▁bussola	-12.1887
▁fantasma	-12.1888
▁cartaceo	-12.1888
▁prodotta	-12.1888
▁obbligazioni	-12.1889
▁accademica	-12.1889
▁concentrarti	-12.1889
▁restituisce	-12.189
▁spingono	-12.189
▁astratta	-12.189
Esempi	-12.1891
▁prolungato	-12.1891
▁esce	-12.1893
▁pensò	-12.1893
▁sinistro	-12.1895
▁ampi	-12.1896
▁salvo	-12.1896
▁cene	-12.1896
▁cacciatore	-12.1897
▁meritano	-12.1897
Sara	-12.1899
▁esprimendo	-12.1901
▁SEO	-12.1902
▁elicottero	-12.191
▁parlata	-12.1915
interruzione	-12.1915
▁leggeva	-12.1916
▁occupata	-12.1918
▁dovuti	-12.1918
▁nodo	-12.1921
▁can	-12.1923
▁collaborato	-12.1926
Occidente	-12.1927
▁capisco	-12.1928
▁nitida	-12.1931
▁barbabietole	-12.1932
▁teatrali	-12.1932
▁caloroso	-12.1932
▁vetrine	-12.1932
▁differenziarsi	-12.1933
▁competizioni	-12.1933
▁parità	-12.1933
▁inesplorati	-12.1934
▁localizzata	-12.1934
▁zuppe	-12.1935
Fare	-12.1938
▁plasmando	-12.1938
▁aggiunta	-12.1939
▁decodificare	-12.194
▁psicologia	-12.194
▁guardato	-12.1941
▁fascia	-12.1943
▁variegate	-12.1944
▁rispettate	-12.1946
▁consigliati	-12.1952
▁collegati	-12.1952
▁riportar	-12.1956
▁camminavano	-12.1957
▁comprenda	-12.1957
▁emblema	-12.1959
▁insoddisfazione	-12.1961
▁ricarica	-12.1965
▁singola	-12.1969
segnando	-12.1973
▁batterica	-12.1976
▁tangibili	-12.1976
▁bellissimo	-12.1977
▁emozionati	-12.1977
▁didattici	-12.1978
▁click	-12.1978
▁protettivi	-12.1978
▁crimini	-12.198
▁nutrire	-12.198
▁aggiungeva	-12.1987
▁custodia	-12.1994
Ottener	-12.1997
▁metter	-12.2
Terra	-12.2002
▁vario	-12.2012
avevano	-12.2013
▁visioni	-12.2014
▁Management	-12.2019
▁trovarsi	-12.202
▁dispersione	-12.202
▁coinvolgono	-12.202
▁contenitori	-12.202
▁annullato	-12.2021
▁gustative	-12.2021
▁cinghiale	-12.2022
▁socializzazione	-12.2023
▁trasmessa	-12.2023
▁update	-12.2024
▁ritirare	-12.2025
▁successivi	-12.2032
▁colorata	-12.2033
▁solidi	-12.2034
▁assoluto	-12.2036
▁abitazione	-12.2039
▁calo	-12.2039
▁ininterrotta	-12.2041
▁fiamme	-12.2041
▁abbinare	-12.2043
▁prospera	-12.2048
▁esplorava	-12.2061
elenco	-12.2061
estetica	-12.2062
▁barbecue	-12.2064
▁occupano	-12.2064
▁meridionale	-12.2064
▁Federazione	-12.2065
▁sostanzioso	-12.2066
▁frode	-12.2066
▁approvata	-12.2066
▁proporre	-12.2067
▁riposarsi	-12.2067
▁segnalato	-12.2067
▁utilizziamo	-12.2068
▁ambizione	-12.2068
▁simulazione	-12.2068
▁tenera	-12.207
▁iscritti	-12.207
▁faranno	-12.2071
▁abbracciare	-12.2075
▁sincere	-12.2075
▁partecipano	-12.2076
▁isolate	-12.2076
▁umount	-12.2078
▁terminato	-12.2086
▁sostituendo	-12.209
▁preparavano	-12.2091
Rinnova	-12.2095
affacciano	-12.2102
▁pancake	-12.2106
Definire	-12.2108
▁larghezza	-12.2109
▁grattacieli	-12.2109
▁cosmetici	-12.2109
▁pungente	-12.2109
▁accadrà	-12.2109
▁tasti	-12.211
▁fallimenti	-12.2111
▁padrone	-12.2112
▁asincrone	-12.2113
▁bucatini	-12.2115
▁fabbricazione	-12.2116
▁Cristo	-12.2116
▁tornati	-12.2122
▁funzionato	-12.2122
▁lascito	-12.2123
▁combinando	-12.2124
▁epocale	-12.2129
▁rafforza	-12.2129
pesce	-12.213
assicurò	-12.2133
idratazione	-12.2136
▁Mac	-12.2143
estratto	-12.2144
▁lenti	-12.2152
▁lasso	-12.2152
▁Sapeva	-12.2152
▁immigrati	-12.2153
▁vorrà	-12.2153
▁disdire	-12.2153
▁presidenziale	-12.2155
▁gialle	-12.2158
▁gabbiani	-12.2159
▁fatturato	-12.2159
▁vada	-12.216
▁noia	-12.216
▁resilienti	-12.2161
▁rilevato	-12.2162
▁risolta	-12.2165
▁semplificano	-12.2165
▁soddisfatte	-12.217
▁collo	-12.217
▁Ricorda	-12.2176
▁oli	-12.2179
▁determinano	-12.218
▁colloqui	-12.2181
▁configur	-12.2184
▁interessa	-12.2185
▁limitazione	-12.2187
▁attratt	-12.2189
▁entrata	-12.2193
upgrade	-12.2197
▁pallavolo	-12.2198
▁impediscono	-12.2199
▁Quel	-12.2199
▁ICS	-12.2202
▁trasferita	-12.2202
▁aggressive	-12.2202
▁insormontabile	-12.2203
▁trattativa	-12.2203
▁pregare	-12.2204
▁ridotti	-12.2206
▁agiscono	-12.2207
▁arancione	-12.221
▁Tutti	-12.2211
▁Rossa	-12.2212
▁illegale	-12.2213
▁elaborata	-12.2215
▁propaga	-12.2219
▁infortunio	-12.2235
▁redatto	-12.2238
▁spiegava	-12.2241
▁world	-12.2242
▁spontaneità	-12.2243
▁intimidire	-12.2244
▁Moda	-12.2245
▁crociera	-12.2245
▁riconosciuta	-12.2247
▁poesie	-12.2247
▁cancellato	-12.2248
▁latino	-12.225
▁arrivava	-12.2254
▁iscrisse	-12.2258
▁confronta	-12.2264
Tutte	-12.2268
▁introducendo	-12.2269
▁trasformati	-12.2269
▁funzionino	-12.227
renderà	-12.2274
▁stressato	-12.2285
▁modificate	-12.2288
onestà	-12.2289
▁Carmine	-12.2289
▁gateway	-12.229
▁scontato	-12.229
▁cantavano	-12.2291
▁concezioni	-12.2292
▁cristiana	-12.2293
▁amiamo	-12.2293
▁traduzioni	-12.2293
▁estratti	-12.2294
▁alzò	-12.2295
▁coro	-12.2295
▁merce	-12.2297
▁girare	-12.2298
AI	-12.2301
▁spiriti	-12.2302
uovo	-12.2302
▁risparmiato	-12.2306
▁stai	-12.2307
▁pelo	-12.2308
▁Esiste	-12.2319
▁mole	-12.232
Ava	-12.232
▁monti	-12.2322
mmergendosi	-12.2326
depressione	-12.2327
▁Tizio	-12.2334
▁lunedì	-12.2334
▁Polonia	-12.2334
viene	-12.2335
▁scottature	-12.2335
▁ristoratore	-12.2335
▁benvenuto	-12.2336
▁elementari	-12.2336
▁salubre	-12.2336
▁gamba	-12.2337
▁concepita	-12.2337
▁intensiva	-12.2337
▁geografia	-12.2338
▁ucciso	-12.2339
▁trasformarsi	-12.2341
Inizia	-12.2342
▁sincera	-12.2342
▁fisso	-12.2344
Esse	-12.2346
▁ringraziare	-12.2348
▁or	-12.2352
▁bilanciati	-12.2354
▁costruiti	-12.2358
▁G	-12.2361
▁concesso	-12.2367
rai	-12.2373
▁custom	-12.2377
▁quanti	-12.2377
▁chiamati	-12.2379
▁up	-12.2379
▁immobile	-12.2379
▁dinamismo	-12.238
▁frontiera	-12.2382
▁statico	-12.2383
▁governativa	-12.2384
▁astratto	-12.2386
▁incondizionato	-12.2386
▁who	-12.239
▁consultato	-12.239
▁riferimenti	-12.2392
▁must	-12.2397
▁richiamare	-12.2401
▁corse	-12.2404
▁presi	-12.2405
▁preoccupare	-12.2408
▁agente	-12.241
▁massimizza	-12.2425
▁perfette	-12.2425
▁brodo	-12.2427
▁ecologiche	-12.2427
▁propongono	-12.2427
▁frigorifero	-12.2427
▁insenature	-12.2427
▁show	-12.2428
▁discut	-12.2428
▁art	-12.2428
▁superamento	-12.2428
Hotel	-12.2428
▁attributi	-12.2429
▁fatture	-12.243
▁ridevano	-12.2432
▁webserver	-12.2433
▁200	-12.2434
Tenendo	-12.2436
▁uccidere	-12.2437
▁implementate	-12.244
Realizzar	-12.2445
▁analizz	-12.2446
▁secondari	-12.2449
▁libere	-12.245
▁Regina	-12.245
ve	-12.2455
▁enfasi	-12.2462
▁rilassa	-12.2468
▁fondere	-12.2468
▁dumpling	-12.247
Echo	-12.2473
▁javascript	-12.2473
▁retaggio	-12.2473
▁poltrona	-12.2473
▁vetrate	-12.2473
▁cronologia	-12.2473
▁contenti	-12.2473
▁ruscelli	-12.2474
▁provengono	-12.2474
▁diminuendo	-12.2474
▁inquietudini	-12.2474
▁crosta	-12.2474
▁arrabbiato	-12.2474
▁improprio	-12.2474
▁svegliò	-12.2474
▁proposito	-12.2474
▁crucial	-12.2475
▁porzioni	-12.2475
▁mercatini	-12.2476
allevamento	-12.2476
▁illusioni	-12.2476
▁razionalizzare	-12.2476
▁naturalezza	-12.2478
▁pensavo	-12.2478
▁accumulata	-12.2479
▁persistenti	-12.248
▁prezzemolo	-12.248
▁annotazione	-12.2481
▁lacune	-12.2485
▁Chiese	-12.2485
▁rivoluzionaria	-12.2485
▁evitato	-12.2487
▁Joe	-12.2487
▁rilassati	-12.2487
▁Grand	-12.2493
Rischia	-12.2496
▁indizi	-12.2497
sostenibile	-12.25
▁Asti	-12.2501
▁fini	-12.2507
▁surf	-12.2517
▁Museum	-12.2517
Ecco	-12.2517
▁ipnotico	-12.252
▁violino	-12.252
▁infantile	-12.252
▁utensili	-12.252
▁raggiungibili	-12.2521
0.000	-12.2522
▁cambiate	-12.2522
▁CV	-12.2522
▁sbocciati	-12.2522
▁prestigiose	-12.2524
▁his	-12.2526
▁rimaneva	-12.2528
▁dizionario	-12.2533
▁sedute	-12.2534
▁aggiuntiva	-12.2534
▁abbinat	-12.2537
▁Thorne	-12.2538
▁rivoluzionarie	-12.2539
▁collabora	-12.2542
▁registra	-12.2548
Configura	-12.2552
▁fondate	-12.2552
▁sappia	-12.2553
▁preventiva	-12.2556
▁imitare	-12.2557
accaduto	-12.2566
▁burnout	-12.2566
▁bibite	-12.2567
▁lupi	-12.2568
▁pellegrinaggio	-12.2568
▁caus	-12.257
▁vegetale	-12.257
▁archiviati	-12.257
ovest	-12.2571
Est	-12.2574
artefatto	-12.2577
▁integrano	-12.2578
▁conoscevano	-12.2578
▁consolida	-12.2579
zio	-12.258
▁accendere	-12.2581
▁compresso	-12.2582
▁conviene	-12.2589
▁Michele	-12.2589
▁Alessia	-12.2594
▁Carlo	-12.2602
▁raggiungo	-12.2605
▁Qui	-12.261
▁motiva	-12.2612
▁Player	-12.2613
Romania	-12.2613
▁cucinato	-12.2613
▁esteriore	-12.2614
▁oscillare	-12.2614
▁vediamo	-12.2614
▁superflui	-12.2615
imprenditore	-12.2615
▁incomplete	-12.2616
▁rientrare	-12.2616
▁proteggerla	-12.2618
▁ripiene	-12.262
▁incapace	-12.2624
▁approvazione	-12.2625
▁provava	-12.2626
▁cotti	-12.2638
▁solita	-12.264
▁coinvolgeva	-12.2643
▁Go	-12.2643
▁nodi	-12.2646
▁pompa	-12.2646
▁spicca	-12.2653
nello	-12.2654
▁narra	-12.266
▁blockchain	-12.266
▁ammalò	-12.266
▁toast	-12.266
▁Langhe	-12.2661
▁do	-12.2661
▁sfornato	-12.2661
▁fervore	-12.2661
▁termico	-12.2661
▁uguale	-12.2662
▁catalogo	-12.2663
▁redazione	-12.2663
▁colmare	-12.2663
▁cinematografica	-12.2663
▁convincenti	-12.2664
▁aumentava	-12.2664
▁coprono	-12.2665
▁scosso	-12.2665
▁street	-12.2668
▁insolito	-12.2669
▁sveglia	-12.2671
▁dipartimento	-12.2671
▁neri	-12.2672
▁comunione	-12.2674
▁imparar	-12.2683
▁adesione	-12.2694
▁calmi	-12.2697
▁Devi	-12.2697
-6	-12.2701
izzazione	-12.2703
▁tengano	-12.2706
▁wireless	-12.2708
▁psicofisico	-12.2708
▁disidratazione	-12.2708
▁sostenitori	-12.2708
▁accidentato	-12.2709
▁Goloritzé	-12.2709
▁tiepido	-12.2709
Sar	-12.271
▁particolarità	-12.271
▁rustica	-12.271
▁partendo	-12.2711
▁intrappolati	-12.2711
▁conformarsi	-12.2712
latte	-12.2713
▁promette	-12.2713
▁asciutto	-12.2714
▁religiosi	-12.2714
▁brillare	-12.2715
▁funzionasse	-12.2717
▁shock	-12.2718
▁Everest	-12.272
▁dimenticando	-12.2725
▁caduto	-12.2725
Cina	-12.2732
▁espressa	-12.2732
▁universo	-12.2736
▁naviga	-12.2737
▁creatori	-12.2738
▁deg	-12.2744
f	-12.2748
▁disegnato	-12.275
▁potenzial	-12.2753
Google	-12.2755
▁Francisco	-12.2755
▁aperitivo	-12.2755
▁beneficenza	-12.2756
▁legumi	-12.2756
▁frenetico	-12.2756
▁reagirono	-12.2756
▁umanità	-12.2757
▁coding	-12.2759
▁impronte	-12.276
▁confortevoli	-12.2761
▁diagnostic	-12.2762
▁trasmesse	-12.2762
▁Firefox	-12.2762
▁cercavo	-12.2765
▁nozione	-12.2767
▁imponenza	-12.2767
▁originario	-12.2769
▁casuale	-12.2771
▁irradia	-12.2771
▁25%	-12.2772
▁Apple	-12.278
▁salati	-12.2785
▁riportate	-12.2788
Piemonte	-12.2795
▁massaggi	-12.2796
▁immerse	-12.28
▁fur	-12.2803
▁people	-12.2803
▁Bellunesi	-12.2803
▁stiratura	-12.2803
▁garage	-12.2803
▁lottano	-12.2805
▁comprensibili	-12.2805
▁est	-12.2806
▁aspettarsi	-12.2807
Londra	-12.2807
▁brani	-12.2809
▁estero	-12.2812
▁nessuna	-12.2814
▁inadeguato	-12.2814
▁degrado	-12.2815
▁immediati	-12.2818
▁errato	-12.2823
▁ottimizzati	-12.2825
▁copriva	-12.2828
Certo	-12.2828
▁RxJS	-12.2832
▁r	-12.2834
▁prim	-12.2835
▁Mali	-12.2838
▁intreccio	-12.284
▁mioOggetto	-12.2851
▁heart	-12.2851
▁trainer	-12.2851
▁imperatori	-12.2852
▁fertilizzanti	-12.2852
▁fermarci	-12.2852
▁conviviale	-12.2852
▁prestiti	-12.2853
▁piacerebbe	-12.2853
▁abituati	-12.2854
▁inseriti	-12.2855
▁inesplorate	-12.2856
▁spostano	-12.2856
▁morali	-12.2857
intuizione	-12.2857
▁pacchi	-12.2858
▁sfruttata	-12.2858
ingegno	-12.2861
▁luminosi	-12.2863
▁risolvendo	-12.2863
appetito	-12.2866
▁Sa	-12.2866
ng	-12.2869
▁contatta	-12.287
'?",	-12.288
▁restaurato	-12.2891
▁form	-12.2891
▁pensata	-12.2891
▁cuori	-12.2893
▁Beach	-12.2899
▁periferiche	-12.2899
▁caviale	-12.29
▁prevenendo	-12.29
▁ringraziò	-12.29
▁prassi	-12.29
▁panorami	-12.29
▁matita	-12.29
▁IBAN	-12.29
▁benzina	-12.2901
▁proporzioni	-12.2902
▁predefinito	-12.2902
▁affollato	-12.2902
▁enogastronomica	-12.2902
▁mantenuta	-12.2905
intrattenimento	-12.2905
▁Olimpico	-12.2906
pesto	-12.2906
▁trappola	-12.2906
▁liberando	-12.2907
▁fastidio	-12.2908
imponente	-12.2908
incantesimo	-12.2908
ottenimento	-12.2909
▁indossano	-12.2909
▁attivazione	-12.291
▁usata	-12.2913
▁diffondeva	-12.2916
▁pur	-12.2917
▁master	-12.292
valsa	-12.2921
▁lavare	-12.2937
▁caricato	-12.2938
artificio	-12.294
▁attenzioni	-12.2942
▁Appen	-12.2945
▁regalare	-12.2945
▁salotto	-12.2948
▁dipartimenti	-12.2949
▁ricaricarsi	-12.2949
▁portoghese	-12.2949
▁orientarsi	-12.2949
▁imponibile	-12.2949
▁escludere	-12.2952
▁radicate	-12.2955
▁costruttiva	-12.2955
Bella	-12.2956
soggetta	-12.2957
▁visualizzate	-12.2957
iniezione	-12.2958
▁trovate	-12.2959
▁venuto	-12.2965
affetto	-12.297
▁migliorerà	-12.2972
out	-12.2972
▁F	-12.2977
▁desiderare	-12.2984
▁soia	-12.2985
▁cardio	-12.2987
composizione	-12.2987
ach	-12.299
▁oggettiva	-12.2996
▁history	-12.2997
▁fruizione	-12.2997
▁ministro	-12.2997
▁confidenzialità	-12.2997
▁cessazione	-12.2997
▁gravidanza	-12.2998
▁correlazione	-12.2998
▁accrescere	-12.2998
▁verifichino	-12.2999
▁appartamenti	-12.2999
▁intreccia	-12.3
▁ripreso	-12.3
▁piantare	-12.3
▁lottava	-12.3002
▁fissato	-12.3002
▁rifiuto	-12.3005
▁Corea	-12.3006
▁memorizzate	-12.3006
▁accelera	-12.3007
▁orientamento	-12.3009
▁siciliani	-12.3012
▁Taormina	-12.3013
▁complicate	-12.3014
▁dimostrano	-12.3023
▁Henry	-12.3025
▁affascinare	-12.3025
▁produzioni	-12.3027
anche	-12.303
assicurarti	-12.3042
▁Center	-12.3046
▁differire	-12.3046
▁interagiamo	-12.3046
▁asciutta	-12.3047
tò	-12.3048
▁assaporando	-12.3048
esempio	-12.3049
▁patologia	-12.305
▁scopriamo	-12.305
▁just	-12.305
▁sofisticata	-12.3051
▁terzi	-12.3052
▁ansiosi	-12.3052
▁Natalia	-12.3054
Mellieha	-12.3055
▁snello	-12.3061
▁facciale	-12.3062
▁puliti	-12.3064
▁capitare	-12.3067
▁Atlantico	-12.3071
▁eccitazione	-12.3074
▁spaziose	-12.3074
▁amo	-12.3079
Garantir	-12.3084
▁Pinocchio	-12.3085
▁valutati	-12.309
▁impegn	-12.309
▁varenyky	-12.3095
▁cristianesimo	-12.3095
▁dirigenza	-12.3095
▁metafora	-12.3096
▁galassia	-12.3096
▁litri	-12.3096
▁partì	-12.3097
▁declino	-12.3097
▁indicatori	-12.3097
▁tag	-12.3098
▁felt	-12.31
▁soggettivo	-12.31
▁universali	-12.3101
▁asciugare	-12.3101
▁presuppost	-12.3103
▁accompagnava	-12.3103
▁estinzione	-12.3104
▁arrivi	-12.3104
Barcellona	-12.3104
▁introduce	-12.3109
▁deluso	-12.3111
▁accusato	-12.3111
▁dipinte	-12.3113
▁emettere	-12.3115
▁riempire	-12.3117
▁incontaminate	-12.3117
▁archivi	-12.3117
▁ambiziosa	-12.3122
▁criterio	-12.3123
▁ricercatore	-12.3123
▁perfetti	-12.3125
▁trascorsi	-12.3126
▁Milan	-12.3129
▁istruttore	-12.3129
▁curati	-12.3134
rendendola	-12.3136
▁limitando	-12.3141
▁Corporation	-12.3144
▁terapeuta	-12.3145
▁bronzo	-12.3145
▁metodologia	-12.3146
▁tentazione	-12.3147
▁oculato	-12.3148
▁fossimo	-12.3148
▁distinguersi	-12.315
▁morti	-12.315
▁scintilla	-12.315
obbligo	-12.315
incendio	-12.3157
argento	-12.3158
▁presenterà	-12.3158
Fornire	-12.316
▁ascoltavano	-12.316
ate	-12.3162
▁respirando	-12.3162
▁interiori	-12.3167
▁effettiva	-12.3167
▁nutre	-12.3183
▁orme	-12.3193
▁Celsius	-12.3194
▁volatilità	-12.3194
▁finestrino	-12.3195
▁abbonati	-12.3195
▁concordatario	-12.3195
▁mutuo	-12.3195
▁accademico	-12.3196
▁recesso	-12.3196
▁composizioni	-12.3198
▁incrollabile	-12.3198
▁dolorosa	-12.3198
▁alone	-12.3201
account	-12.3201
▁rappresentativa	-12.3204
▁monitora	-12.3205
remmo	-12.3214
▁respiratori	-12.3216
▁robusti	-12.3217
efficace	-12.3218
tare	-12.3221
▁fiorito	-12.3223
▁riusci	-12.3228
Oceano	-12.3228
▁ricordano	-12.3229
URL	-12.3233
▁Pasqua	-12.3239
▁equilibrati	-12.3242
▁you	-12.3245
▁rigenerazione	-12.3246
▁giornalisti	-12.3247
surriscaldamento	-12.3247
▁coltivata	-12.3249
▁Voleva	-12.3251
▁braccio	-12.3251
▁placare	-12.3252
▁rilascia	-12.3253
▁mantenute	-12.3254
▁arrende	-12.3258
▁oscure	-12.3259
▁mangiano	-12.326
▁consider	-12.3265
▁togliere	-12.3266
▁chiarito	-12.3271
▁esperte	-12.3276
▁vende	-12.3279
▁concorso	-12.329
▁Hawaii	-12.3291
▁gourmet	-12.3294
▁differiscono	-12.3295
▁diagramma	-12.3295
▁monaco	-12.3295
▁torrone	-12.3295
▁catastrofiche	-12.3296
▁periodicamente	-12.3296
▁rotazione	-12.3296
▁osservava	-12.3296
▁bean	-12.3296
▁fragrante	-12.3297
▁distribuiti	-12.3297
▁tessera	-12.3299
▁trip	-12.33
▁genesi	-12.33
anomalia	-12.3301
▁pescatore	-12.3303
GreenTech	-12.3303
▁furia	-12.3303
Tatoeba	-12.3305
▁ottenuta	-12.3306
▁ammirate	-12.3309
▁scrivendo	-12.3309
▁verificate	-12.3312
▁av	-12.3314
▁installata	-12.3316
Bean	-12.3321
sero	-12.3325
▁fertili	-12.3327
cosa	-12.333
Stava	-12.3336
ma	-12.3346
▁town	-12.3347
▁bici	-12.3347
▁organizzativa	-12.3348
▁abbandono	-12.3349
▁apriva	-12.335
▁trasferiti	-12.335
▁spento	-12.3355
▁memorizza	-12.3355
▁ridotte	-12.3357
▁rappresentative	-12.3357
▁naturalmente	-12.3359
▁ricoverato	-12.336
ina	-12.3363
▁applicati	-12.3363
▁verificata	-12.3367
▁perfezionamento	-12.3368
Offrire	-12.3368
▁sposati	-12.337
arco	-12.3371
▁ascoltate	-12.3373
Migliorar	-12.3375
▁bouquet	-12.3396
▁supremazia	-12.3396
▁esibizioni	-12.3396
▁descrivono	-12.3396
▁pappardelle	-12.3397
▁indulge	-12.3398
▁contanti	-12.3398
▁culmine	-12.3399
▁evidenti	-12.3399
▁sollevando	-12.34
▁passeggero	-12.34
▁rileva	-12.3401
▁cattive	-12.3402
▁processione	-12.3405
▁arrivavano	-12.3405
▁condotte	-12.3407
Trastevere	-12.3408
vorare	-12.3412
▁audaci	-12.3412
▁frustrati	-12.3419
▁Pavia	-12.3423
?](	-12.3428
incidono	-12.343
▁significasse	-12.343
esattezza	-12.3431
▁settimanali	-12.3439
▁9	-12.344
▁Olivier	-12.3441
▁biologiche	-12.3447
▁nutrimento	-12.3448
▁raccontate	-12.3449
▁appetitoso	-12.3449
▁cervo	-12.345
▁soffrono	-12.345
▁serpente	-12.345
▁obsolete	-12.3451
Via	-12.3452
▁sostituiti	-12.3453
▁ardue	-12.3454
▁Forse	-12.3455
▁abili	-12.3458
▁Cena	-12.3459
elettrodomestici	-12.346
Richard	-12.3462
▁derivant	-12.3462
Chiunque	-12.3464
infinito	-12.3464
▁coincide	-12.3465
▁collegato	-12.347
▁st	-12.3471
▁scontri	-12.3472
▁Expedia	-12.3474
▁costringendol	-12.3478
▁presenze	-12.3488
Utilizzar	-12.349
▁lasciate	-12.3491
▁petto	-12.3493
▁vulcano	-12.3493
▁mediazione	-12.3496
▁suspense	-12.3498
▁farcela	-12.3498
▁fotocamera	-12.3499
▁prerequisito	-12.3499
▁cugino	-12.3499
▁schermata	-12.3499
▁produceva	-12.3499
▁aspettarmi	-12.3499
▁psiche	-12.3499
▁permettermi	-12.35
▁concentrò	-12.35
▁chia	-12.3501
Cercare	-12.3502
▁sublime	-12.3503
▁consideri	-12.3503
Ri	-12.3505
▁pote	-12.3506
▁cacao	-12.3506
cloud	-12.3507
▁calmarsi	-12.3511
Oggi	-12.3513
ssi	-12.3514
▁provando	-12.3517
epidemia	-12.3518
rvi	-12.3518
▁making	-12.3519
occhiata	-12.352
▁myenv	-12.352
Dura	-12.3521
▁sposta	-12.3528
▁testata	-12.353
▁uscì	-12.3532
▁difetto	-12.3537
▁ammira	-12.3539
▁svolse	-12.3542
▁affida	-12.3542
▁droga	-12.3546
▁dovrest	-12.3547
▁diplomazia	-12.355
▁appositamente	-12.355
▁angolazioni	-12.355
▁bancarelle	-12.3552
▁usarlo	-12.3552
▁sommersa	-12.3552
▁susseguir	-12.3552
▁suggestione	-12.3555
▁conducono	-12.3557
▁snodo	-12.3557
▁accende	-12.3557
▁rinomate	-12.3558
▁astuzia	-12.3558
▁rilassanti	-12.3561
▁collettive	-12.3562
▁Sol	-12.3564
▁povera	-12.3565
host	-12.3565
▁comport	-12.3566
▁calcola	-12.3566
▁univoca	-12.3566
Green	-12.3567
▁filato	-12.357
▁informale	-12.3573
▁Eloquent	-12.3574
What	-12.358
▁ordinata	-12.3581
tore	-12.3585
▁abbinati	-12.3588
Crea	-12.3593
▁prestigio	-12.3595
▁allena	-12.3599
▁sviluppatrice	-12.3602
▁predisposizione	-12.3602
▁florida	-12.3602
▁ridendo	-12.3604
▁conoscevo	-12.3604
▁lattuga	-12.3605
▁consulta	-12.3606
▁cutanei	-12.3608
▁yum	-12.3609
▁pieghe	-12.3611
▁mostro	-12.3611
Richiede	-12.3611
Paul	-12.3617
esibizione	-12.362
adrenalina	-12.3621
▁installando	-12.3621
arredamento	-12.3622
gnificativamente	-12.3623
▁scende	-12.3624
▁sogna	-12.3625
Oasi	-12.3631
▁manifestato	-12.3633
▁nobili	-12.3636
▁Data	-12.3637
▁taglia	-12.3639
▁rischiosa	-12.3639
▁Robert	-12.3643
▁scarica	-12.3647
▁diventi	-12.3653
▁prevedono	-12.3654
▁pigro	-12.3654
▁pilastri	-12.3654
▁curvatura	-12.3654
▁barocche	-12.3654
▁ricettiva	-12.3656
▁otto	-12.3656
▁alzarsi	-12.3658
▁margine	-12.3658
▁aprile	-12.3659
▁cambiava	-12.3661
▁finì	-12.3661
u	-12.3662
▁acquistando	-12.3665
▁intesa	-12.3666
▁cre	-12.3668
▁ricercare	-12.3668
▁amavano	-12.3668
Ostia	-12.367
▁situati	-12.3675
▁andavano	-12.3678
▁foglia	-12.368
▁poca	-12.3687
▁senta	-12.3688
▁beneficia	-12.369
originale	-12.3699
▁Sole	-12.37
▁progetta	-12.3703
▁fascicolo	-12.3706
▁rifornimento	-12.3706
▁collasso	-12.3706
▁collana	-12.3706
▁sapienza	-12.3707
▁concentrarci	-12.3707
▁sussurro	-12.3707
▁clausola	-12.3708
▁pregiato	-12.3708
▁estetico	-12.3709
▁nocive	-12.3709
▁amministrativi	-12.371
▁usarla	-12.371
▁Enterprise	-12.371
▁affrontò	-12.3713
▁Naomi	-12.3717
▁democratica	-12.3717
▁piaceri	-12.3717
▁scalata	-12.3718
Caravaggio	-12.3722
▁iconici	-12.3723
occidentale	-12.3723
▁imbarazzo	-12.3727
▁fissa	-12.373
tto	-12.3731
inflazione	-12.3739
▁delizia	-12.3739
▁sistemico	-12.374
▁travel	-12.3744
ca	-12.3747
▁Swift	-12.3758
▁Antropologia	-12.3758
▁reciproche	-12.3759
▁segretezza	-12.3759
▁proceduto	-12.3759
▁Pelmeni	-12.376
▁discriminazioni	-12.376
▁acuta	-12.3761
▁scorretto	-12.3761
▁spuntino	-12.3762
▁monitorando	-12.3762
▁commessi	-12.3762
▁Mondo	-12.3763
▁porzione	-12.3764
▁rinomati	-12.3764
▁profumati	-12.3766
▁plasmano	-12.3766
▁immersiva	-12.3768
▁spingeva	-12.3775
▁violato	-12.3776
▁venuta	-12.3777
Chicago	-12.3779
▁mancare	-12.3779
▁isola	-12.378
▁V	-12.3781
▁Banca	-12.3784
▁coraggiosa	-12.3799
▁estendevano	-12.3803
▁oceano	-12.3804
▁coperti	-12.3811
▁began	-12.3811
▁pineta	-12.3812
▁imperiale	-12.3813
▁eseguibili	-12.3813
▁concretizza	-12.3813
▁soffocare	-12.3814
▁piangere	-12.3814
▁fritto	-12.3815
▁trota	-12.3815
▁odierno	-12.3815
▁sperimentato	-12.3816
▁classificazione	-12.3817
▁raggiungerlo	-12.3817
▁aprirsi	-12.3817
▁scrupolosamente	-12.3817
▁Entrambi	-12.382
▁valorizzata	-12.382
▁soleggiate	-12.3821
▁consumando	-12.3822
▁considerò	-12.3823
▁episodio	-12.3823
▁annaffiare	-12.3825
▁osservano	-12.3828
▁sposare	-12.3829
▁riversa	-12.3835
usura	-12.3836
▁itinerari	-12.3837
▁copiare	-12.3838
metterci	-12.384
▁But	-12.3845
tte	-12.3847
est	-12.3848
▁incolumità	-12.3852
▁conformi	-12.3854
Ricerca	-12.3859
▁saliva	-12.386
▁santi	-12.3862
▁18	-12.3862
▁Wright	-12.3864
▁blogger	-12.3865
▁dimenticherò	-12.3865
▁contrattempi	-12.3865
▁insediamenti	-12.3865
▁prefabbricata	-12.3866
▁trascorrono	-12.3866
▁morfologia	-12.3866
▁svegliarsi	-12.3866
▁cantano	-12.3868
▁sottoposti	-12.3868
▁specificità	-12.3869
▁fantastici	-12.3869
▁Turchia	-12.3869
▁saremo	-12.3869
▁brillano	-12.387
▁over	-12.387
▁alzato	-12.3872
▁abbandonati	-12.3872
▁metriche	-12.3873
▁scadere	-12.3873
▁perpetua	-12.3875
▁contrasti	-12.3875
▁disagi	-12.3877
▁fitta	-12.3879
Alessandro	-12.3881
▁ispirano	-12.3886
▁minacciata	-12.3886
▁grati	-12.3886
oscurità	-12.3888
▁outfit	-12.3889
▁local	-12.3891
Arena	-12.3895
▁trovavo	-12.3898
▁spingendo	-12.39
▁diamanti	-12.3902
▁connetter	-12.3912
▁ovest	-12.3918
▁glutine	-12.3918
▁fertilità	-12.3919
▁robotica	-12.3919
▁ritrov	-12.392
▁limpido	-12.392
▁sollevamento	-12.392
▁avvertito	-12.3921
▁ricevano	-12.3922
▁Copp	-12.3923
▁Maggiore	-12.3923
▁focalizzato	-12.3923
▁Salmonidae	-12.3924
▁trattorie	-12.3924
▁volante	-12.3925
▁allegati	-12.3926
avrebbe	-12.3926
▁inedita	-12.3926
▁annotare	-12.3926
▁splendente	-12.3926
▁cauta	-12.3927
▁ferie	-12.3927
▁consona	-12.3928
▁calar	-12.393
reindirizzamento	-12.3931
▁propens	-12.3934
▁compra	-12.3934
eccesso	-12.3938
abbondanza	-12.3943
Ascoltar	-12.395
▁Sai	-12.395
▁assistente	-12.3958
▁ospedali	-12.396
▁penale	-12.3965
▁compromette	-12.3969
▁ottimisti	-12.3971
▁Gioconda	-12.3972
▁assordante	-12.3972
▁affermazioni	-12.3974
▁doloroso	-12.3974
▁arteriosa	-12.3974
▁didattica	-12.3975
▁obbligato	-12.398
▁attuare	-12.3983
▁indossando	-12.3984
▁"[	-12.3985
▁Lyra	-12.3986
▁intendeva	-12.3986
matematica	-12.399
▁comunicano	-12.399
▁vibranti	-12.3995
▁usava	-12.3996
ipertensione	-12.3998
usabilità	-12.4002
▁80	-12.4004
▁assicurato	-12.4004
h	-12.4006
▁consumatore	-12.4007
▁wellness	-12.4007
▁sfidano	-12.4008
offrirà	-12.4009
▁viti	-12.4015
▁mature	-12.402
▁riteneva	-12.4026
EV	-12.4026
▁tedeschi	-12.4026
▁imbarcazioni	-12.4026
[...]
